<unk>	0
<s>	0
</s>	0
in	-0
er	-1
on	-2
es	-3
an	-4
or	-5
▁t	-6
▁S	-7
en	-8
at	-9
▁C	-10
ar	-11
al	-12
▁A	-13
ou	-14
it	-15
▁P	-16
is	-17
▁T	-18
he	-19
ing	-20
ic	-21
ed	-22
▁M	-23
ion	-24
re	-25
▁s	-26
om	-27
▁c	-28
▁B	-29
le	-30
▁a	-31
▁R	-32
▁F	-33
ent	-34
and	-35
▁p	-36
ct	-37
▁D	-38
▁f	-39
▁2	-40
▁L	-41
▁w	-42
as	-43
il	-44
▁the	-45
▁to	-46
▁I	-47
▁b	-48
▁H	-49
▁o	-50
ro	-51
▁E	-52
▁W	-53
▁and	-54
ch	-55
▁N	-56
ol	-57
et	-58
el	-59
us	-60
▁in	-61
▁m	-62
▁G	-63
▁20	-64
▁of	-65
ig	-66
▁O	-67
am	-68
▁d	-69
our	-70
em	-71
ation	-72
▁1	-73
iv	-74
ur	-75
ac	-76
ers	-77
lo	-78
▁U	-79
ag	-80
ot	-81
ew	-82
ad	-83
id	-84
st	-85
ay	-86
▁y	-87
ont	-88
ess	-89
▁h	-90
▁(	-91
un	-92
▁In	-93
ow	-94
▁n	-95
▁for	-96
▁J	-97
ter	-98
▁V	-99
▁202	-100
ul	-101
ir	-102
▁th	-103
▁Re	-104
ut	-105
oo	-106
ies	-107
im	-108
op	-109
est	-110
out	-111
▁St	-112
ce	-113
ear	-114
ate	-115
ip	-116
ts	-117
00	-118
▁&	-119
act	-120
are	-121
▁re	-122
ab	-123
▁on	-124
um	-125
av	-126
▁e	-127
▁-	-128
igh	-129
▁l	-130
all	-131
ist	-132
ith	-133
ub	-134
th	-135
ity	-136
▁g	-137
ap	-138
art	-139
ome	-140
ec	-141
ail	-142
▁is	-143
▁Cont	-144
if	-145
▁r	-146
ort	-147
ment	-148
erv	-149
eb	-150
os	-151
og	-152
ore	-153
▁K	-154
▁Pr	-155
qu	-156
▁The	-157
oun	-158
pp	-159
ain	-160
▁Y	-161
age	-162
▁Pro	-163
ber	-164
▁with	-165
ly	-166
▁Us	-167
..	-168
ook	-169
ver	-170
oc	-171
ect	-172
bout	-173
▁Sh	-174
ions	-175
▁by	-176
▁Al	-177
▁us	-178
▁you	-179
▁pro	-180
od	-181
ust	-182
ib	-183
▁st	-184
▁|	-185
▁your	-186
▁201	-187
ive	-188
ews	-189
ak	-190
ial	-191
ice	-192
▁v	-193
earch	-194
ia	-195
▁3	-196
▁Com	-197
▁Contact	-198
ary	-199
ard	-200
ost	-201
▁Ch	-202
ite	-203
ine	-204
du	-205
ill	-206
end	-207
cc	-208
ack	-209
▁Th	-210
▁Ad	-211
▁Home	-212
▁or	-213
▁be	-214
▁an	-215
▁Tr	-216
▁About	-217
▁0	-218
se	-219
ide	-220
ign	-221
orm	-222
ight	-223
ant	-224
ents	-225
ud	-226
ure	-227
ov	-228
▁are	-229
ff	-230
ast	-231
ep	-232
up	-233
▁Ar	-234
ord	-235
ks	-236
▁All	-237
▁Sp	-238
▁com	-239
ass	-240
▁Res	-241
▁Search	-242
▁4	-243
ember	-244
duct	-245
ge	-246
iz	-247
▁En	-248
▁5	-249
com	-250
iew	-251
rom	-252
20	-253
per	-254
▁cont	-255
▁Con	-256
▁it	-257
▁An	-258
form	-259
ex	-260
▁at	-261
▁Pol	-262
lect	-263
▁this	-264
ie	-265
▁ex	-266
ish	-267
▁wh	-268
▁News	-269
ere	-270
cr	-271
able	-272
ell	-273
▁as	-274
ick	-275
ance	-276
erm	-277
ave	-278
ind	-279
ase	-280
▁that	-281
▁–	-282
ee	-283
ount	-284
▁our	-285
▁Wh	-286
ory	-287
▁lo	-288
▁Serv	-289
acy	-290
ices	-291
pl	-292
ik	-293
ry	-294
ations	-295
▁Ex	-296
icy	-297
▁Un	-298
ans	-299
ors	-300
ame	-301
...	-302
ire	-303
ER	-304
▁©	-305
ug	-306
▁Q	-307
ence	-308
ork	-309
▁Cl	-310
ree	-311
ress	-312
ark	-313
ram	-314
ated	-315
ld	-316
ue	-317
ens	-318
als	-319
low	-320
▁con	-321
ivacy	-322
ra	-323
pt	-324
ings	-325
one	-326
▁ad	-327
ach	-328
▁/	-329
▁2026	-330
▁from	-331
▁6	-332
▁$	-333
▁res	-334
▁he	-335
ob	-336
anc	-337
IN	-338
▁sh	-339
ON	-340
▁2025	-341
▁Pl	-342
ult	-343
ES	-344
ev	-345
upp	-346
▁We	-347
▁Te	-348
▁For	-349
▁ch	-350
ile	-351
▁Log	-352
own	-353
▁pr	-354
▁Em	-355
▁Policy	-356
ics	-357
▁Privacy	-358
ck	-359
▁k	-360
▁tr	-361
ood	-362
let	-363
▁On	-364
▁Our	-365
▁9	-366
▁8	-367
▁Acc	-368
▁not	-369
ian	-370
▁7	-371
ss	-372
row	-373
▁Add	-374
uary	-375
und	-376
ical	-377
fer	-378
▁Ev	-379
ool	-380
ang	-381
eg	-382
▁can	-383
▁Gr	-384
ebs	-385
ound	-386
log	-387
▁Col	-388
ace	-389
ights	-390
ey	-391
cl	-392
▁Ph	-393
eat	-394
ous	-395
▁pl	-396
▁Qu	-397
ject	-398
▁up	-399
▁Sc	-400
ateg	-401
▁New	-402
▁sp	-403
ories	-404
formation	-405
▁Sk	-406
▁will	-407
ubl	-408
enc	-409
ime	-410
ink	-411
eed	-412
▁Sub	-413
enu	-414
▁more	-415
▁we	-416
▁Your	-417
.00	-418
ery	-419
ebsite	-420
▁Br	-421
dit	-422
les	-423
pr	-424
ement	-425
▁10	-426
▁Comm	-427
▁Product	-428
io	-429
OR	-430
▁le	-431
ake	-432
line	-433
▁acc	-434
ates	-435
oin	-436
AR	-437
▁This	-438
▁Fr	-439
▁j	-440
ild	-441
yr	-442
▁Comp	-443
ther	-444
▁Jan	-445
erms	-446
AT	-447
▁Or	-448
▁Des	-449
ong	-450
▁have	-451
hip	-452
EN	-453
▁You	-454
eal	-455
▁em	-456
iness	-457
iss	-458
▁all	-459
▁Mar	-460
▁Services	-461
gh	-462
ond	-463
▁Post	-464
ps	-465
▁More	-466
▁(1	-467
upport	-468
▁content	-469
▁App	-470
ok	-471
ons	-472
port	-473
ments	-474
ext	-475
her	-476
▁Man	-477
usiness	-478
ets	-479
ays	-480
▁en	-481
▁Dis	-482
ft	-483
▁Blog	-484
AL	-485
▁Fac	-486
vi	-487
reat	-488
▁19	-489
▁Reg	-490
ric	-491
▁It	-492
ional	-493
▁View	-494
▁Ind	-495
10	-496
tern	-497
ough	-498
lease	-499
AN	-500
▁Cop	-501
▁Sign	-502
▁Terms	-503
▁My	-504
ility	-505
any	-506
▁Dec	-507
▁im	-508
old	-509
over	-510
ater	-511
aw	-512
▁qu	-513
▁Pre	-514
▁Inst	-515
:00	-516
▁Shop	-517
▁comp	-518
ock	-519
ower	-520
ities	-521
25	-522
air	-523
ale	-524
tt	-525
▁Art	-526
ebook	-527
▁+	-528
yright	-529
▁Events	-530
ookies	-531
land	-532
▁Email	-533
▁ag	-534
its	-535
▁Up	-536
▁Rec	-537
30	-538
ata	-539
ning	-540
▁Med	-541
ash	-542
IC	-543
▁Gu	-544
ve	-545
▁Le	-546
▁te	-547
▁2024	-548
▁out	-549
▁Skip	-550
ef	-551
ience	-552
▁Eng	-553
▁Bl	-554
▁al	-555
▁*	-556
▁Bo	-557
olog	-558
crip	-559
load	-560
erved	-561
ual	-562
evel	-563
ich	-564
pen	-565
ike	-566
▁No	-567
-1	-568
▁app	-569
▁January	-570
▁US	-571
ll	-572
ese	-573
▁To	-574
▁page	-575
ures	-576
ade	-577
day	-578
▁Bu	-579
mer	-580
▁cl	-581
ific	-582
der	-583
▁un	-584
ping	-585
▁Z	-586
▁Copyright	-587
▁do	-588
chn	-589
▁By	-590
▁Get	-591
▁website	-592
cript	-593
▁Login	-594
▁Se	-595
urn	-596
ally	-597
ise	-598
▁product	-599
itt	-600
▁Facebook	-601
▁me	-602
50	-603
▁new	-604
word	-605
AC	-606
▁has	-607
ublic	-608
gram	-609
▁Read	-610
ru	-611
ert	-612
pe	-613
unity	-614
az	-615
ems	-616
ational	-617
ces	-618
ollow	-619
amp	-620
ustom	-621
ages	-622
int	-623
orn	-624
ister	-625
▁12	-626
▁Menu	-627
▁Access	-628
ax	-629
ST	-630
▁Be	-631
▁Off	-632
fo	-633
▁Im	-634
ivers	-635
▁2023	-636
▁X	-637
▁serv	-638
orts	-639
ri	-640
ett	-641
▁Top	-642
irect	-643
▁Nov	-644
▁[	-645
▁about	-646
ah	-647
▁How	-648
af	-649
▁use	-650
▁What	-651
▁Cent	-652
atch	-653
yst	-654
▁Clo	-655
▁May	-656
ours	-657
▁Part	-658
▁Not	-659
evelop	-660
▁any	-661
▁was	-662
ards	-663
99	-664
OU	-665
▁11	-666
▁cookies	-667
gle	-668
ank	-669
etail	-670
▁Products	-671
▁Car	-672
ives	-673
emb	-674
▁Book	-675
avig	-676
els	-677
▁de	-678
▁Me	-679
hed	-680
▁200	-681
▁Sch	-682
ital	-683
▁ev	-684
▁Dr	-685
IT	-686
ownload	-687
▁Care	-688
crib	-689
ited	-690
▁des	-691
ener	-692
▁Loc	-693
irst	-694
▁Arch	-695
▁Jun	-696
sp	-697
rap	-698
▁information	-699
ating	-700
erson	-701
▁FA	-702
ull	-703
very	-704
ould	-705
▁Categ	-706
▁Ro	-707
▁Jul	-708
ources	-709
ange	-710
▁Business	-711
▁post	-712
▁int	-713
ular	-714
▁exper	-715
arket	-716
26	-717
▁Rep	-718
▁Co	-719
▁#	-720
uth	-721
▁Tw	-722
11	-723
▁2022	-724
ix	-725
ys	-726
▁hel	-727
ott	-728
▁Design	-729
rough	-730
ode	-731
ph	-732
▁part	-733
ED	-734
▁Service	-735
▁year	-736
iel	-737
▁Sep	-738
urr	-739
▁dis	-740
▁add	-741
▁Vide	-742
▁prov	-743
▁As	-744
▁se	-745
olut	-746
▁email	-747
ET	-748
OM	-749
ner	-750
▁:	-751
▁Stud	-752
▁work	-753
▁Heal	-754
scrib	-755
ife	-756
▁Oct	-757
▁Free	-758
assword	-759
orld	-760
quir	-761
▁“	-762
isit	-763
▁"	-764
▁2021	-765
▁Aug	-766
▁Support	-767
ize	-768
000	-769
▁Apr	-770
view	-771
ty	-772
ern	-773
▁so	-774
ology	-775
▁their	-776
▁my	-777
▁Hel	-778
▁18	-779
▁Cal	-780
vail	-781
now	-782
inks	-783
▁time	-784
24	-785
▁FAQ	-786
ction	-787
▁Health	-788
.0	-789
▁Feb	-790
▁Show	-791
lish	-792
ING	-793
ames	-794
agram	-795
▁per	-796
▁December	-797
-0	-798
▁Cart	-799
ober	-800
ars	-801
views	-802
▁ph	-803
▁am	-804
oup	-805
ners	-806
bo	-807
ibr	-808
12	-809
▁November	-810
▁List	-811
▁col	-812
▁comm	-813
▁ar	-814
scribe	-815
▁Che	-816
RE	-817
ition	-818
▁pre	-819
▁Share	-820
ecial	-821
OL	-822
▁off	-823
▁2020	-824
▁Par	-825
eries	-826
te	-827
▁top	-828
▁Online	-829
▁Sept	-830
ient	-831
ION	-832
▁Use	-833
▁July	-834
ath	-835
▁Please	-836
▁Phot	-837
ditions	-838
▁Ass	-839
▁through	-840
▁15	-841
▁Out	-842
▁October	-843
▁Adv	-844
▁Information	-845
15	-846
ton	-847
ield	-848
▁September	-849
ina	-850
istr	-851
▁August	-852
amil	-853
▁De	-854
clud	-855
ustr	-856
embers	-857
ied	-858
ium	-859
▁may	-860
ww	-861
▁Fl	-862
▁Resources	-863
▁Collect	-864
▁Back	-865
IS	-866
▁April	-867
▁Power	-868
ai	-869
ino	-870
▁March	-871
▁Name	-872
▁Program	-873
pos	-874
duc	-875
ults	-876
▁sub	-877
▁site	-878
▁2018	-879
▁June	-880
23	-881
ins	-882
19	-883
ier	-884
agement	-885
▁Download	-886
ues	-887
▁So	-888
▁2019	-889
▁sc	-890
itter	-891
etails	-892
ict	-893
EL	-894
▁ind	-895
▁navig	-896
▁Follow	-897
▁Is	-898
▁Open	-899
▁IN	-900
AS	-901
orks	-902
atest	-903
▁rec	-904
outh	-905
▁one	-906
aint	-907
pro	-908
oot	-909
ands	-910
▁Mus	-911
eek	-912
ines	-913
AM	-914
▁help	-915
EC	-916
org	-917
▁Do	-918
▁but	-919
ely	-920
nect	-921
▁gr	-922
ruary	-923
ouse	-924
▁Rel	-925
▁cons	-926
60	-927
etw	-928
vailable	-929
eop	-930
▁here	-931
eng	-932
ible	-933
▁Port	-934
arm	-935
eth	-936
▁And	-937
ove	-938
22	-939
raph	-940
▁account	-941
▁February	-942
//	-943
40	-944
vert	-945
▁Fin	-946
uc	-947
▁reg	-948
tr	-949
▁Subscribe	-950
▁ro	-951
▁Trans	-952
▁Am	-953
▁Don	-954
ocial	-955
▁Can	-956
▁Min	-957
ading	-958
ative	-959
▁Register	-960
▁Direct	-961
▁•	-962
▁Ag	-963
ari	-964
led	-965
▁Now	-966
▁School	-967
▁►	-968
letter	-969
ift	-970
▁no	-971
▁Close	-972
▁Fil	-973
▁Instagram	-974
istory	-975
://	-976
▁Project	-977
▁Media	-978
▁other	-979
▁(1)	-980
In	-981
▁opt	-982
▁English	-983
uss	-984
▁Ac	-985
ences	-986
iqu	-987
ourn	-988
▁need	-989
quest	-990
erg	-991
▁Act	-992
▁als	-993
ission	-994
▁With	-995
18	-996
▁30	-997
ator	-998
▁Community	-999
ials	-1000
▁also	-1001
▁Rights	-1002
▁Gall	-1003
▁Join	-1004
▁cart	-1005
urrent	-1006
▁Categories	-1007
▁Disc	-1008
RO	-1009
▁Account	-1010
ware	-1011
ype	-1012
▁Page	-1013
16	-1014
▁Sw	-1015
ior	-1016
me	-1017
ble	-1018
▁>	-1019
▁und	-1020
red	-1021
onth	-1022
▁Find	-1023
eople	-1024
iversity	-1025
ips	-1026
▁Public	-1027
▁search	-1028
▁Lear	-1029
▁like	-1030
▁Stat	-1031
igital	-1032
ersonal	-1033
▁br	-1034
ites	-1035
▁only	-1036
▁high	-1037
▁14	-1038
▁2017	-1039
ID	-1040
▁Price	-1041
▁pol	-1042
ized	-1043
▁Job	-1044
TS	-1045
aff	-1046
▁24	-1047
▁He	-1048
▁Techn	-1049
umber	-1050
▁»	-1051
ants	-1052
rows	-1053
▁su	-1054
▁×	-1055
▁Team	-1056
▁Rem	-1057
reen	-1058
▁16	-1059
aining	-1060
▁Help	-1061
▁Quick	-1062
▁Custom	-1063
▁If	-1064
lic	-1065
UR	-1066
▁Develop	-1067
▁Prof	-1068
ful	-1069
▁Intern	-1070
cess	-1071
ency	-1072
ube	-1073
ident	-1074
▁support	-1075
▁17	-1076
▁Web	-1077
▁art	-1078
▁Per	-1079
13	-1080
2)	-1081
▁rights	-1082
co	-1083
IL	-1084
▁13	-1085
▁get	-1086
14	-1087
ote	-1088
cept	-1089
itle	-1090
▁Cre	-1091
-20	-1092
▁access	-1093
ales	-1094
▁Reserved	-1095
ety	-1096
▁Link	-1097
▁man	-1098
att	-1099
17	-1100
▁list	-1101
▁news	-1102
avel	-1103
▁Work	-1104
tect	-1105
iving	-1106
ags	-1107
gan	-1108
▁Are	-1109
ystem	-1110
▁over	-1111
uck	-1112
▁Company	-1113
ann	-1114
uthor	-1115
orth	-1116
▁htt	-1117
cription	-1118
▁experience	-1119
▁how	-1120
▁Class	-1121
▁ent	-1122
▁products	-1123
▁High	-1124
rit	-1125
▁Gener	-1126
▁Market	-1127
urch	-1128
▁includ	-1129
▁2016	-1130
ality	-1131
▁reserved	-1132
▁gu	-1133
ron	-1134
ibut	-1135
ookie	-1136
ograph	-1137
▁Inv	-1138
CH	-1139
ased	-1140
▁Conditions	-1141
oy	-1142
▁CON	-1143
0)	-1144
▁Inter	-1145
▁Sm	-1146
eliv	-1147
▁Select	-1148
mit	-1149
ished	-1150
ibrary	-1151
▁Mod	-1152
▁Website	-1153
▁Leg	-1154
▁Ret	-1155
▁design	-1156
▁they	-1157
▁Gallery	-1158
min	-1159
gr	-1160
▁Word	-1161
▁Count	-1162
AD	-1163
▁been	-1164
▁Feat	-1165
▁City	-1166
br	-1167
ability	-1168
▁which	-1169
▁bu	-1170
▁x	-1171
quired	-1172
▁Research	-1173
ision	-1174
▁i	-1175
▁years	-1176
ness	-1177
▁loc	-1178
▁25	-1179
▁free	-1180
▁Cons	-1181
▁Center	-1182
ling	-1183
88	-1184
▁cre	-1185
por	-1186
▁Val	-1187
▁Posts	-1188
oud	-1189
▁(3	-1190
▁Twitter	-1191
AP	-1192
amily	-1193
yle	-1194
ibility	-1195
▁if	-1196
ley	-1197
ists	-1198
▁Educ	-1199
▁Buy	-1200
▁ST	-1201
oci	-1202
EW	-1203
▁Members	-1204
sh	-1205
▁data	-1206
OS	-1207
▁Air	-1208
▁price	-1209
inal	-1210
▁min	-1211
▁act	-1212
uring	-1213
uk	-1214
▁Play	-1215
OT	-1216
▁Go	-1217
▁ac	-1218
▁inst	-1219
icles	-1220
ains	-1221
aking	-1222
▁Sec	-1223
▁Map	-1224
endar	-1225
45	-1226
room	-1227
ural	-1228
alk	-1229
▁who	-1230
▁University	-1231
▁Int	-1232
▁brows	-1233
▁Equ	-1234
▁now	-1235
▁play	-1236
ask	-1237
▁Accessories	-1238
▁form	-1239
▁inter	-1240
▁address	-1241
itch	-1242
▁online	-1243
80	-1244
▁.	-1245
▁Cas	-1246
▁trans	-1247
ica	-1248
▁Tog	-1249
▁info	-1250
▁Visit	-1251
ruct	-1252
▁every	-1253
read	-1254
▁its	-1255
aut	-1256
▁Su	-1257
▁Lo	-1258
▁read	-1259
▁Special	-1260
ym	-1261
fter	-1262
aly	-1263
▁Recent	-1264
ends	-1265
▁best	-1266
▁Links	-1267
▁2015	-1268
▁into	-1269
▁first	-1270
OP	-1271
▁Date	-1272
▁Enter	-1273
Press	-1274
▁Best	-1275
▁Inc	-1276
▁Next	-1277
olutions	-1278
▁business	-1279
▁str	-1280
▁Comments	-1281
▁what	-1282
.5	-1283
rist	-1284
▁fun	-1285
ipping	-1286
▁100	-1287
ering	-1288
▁available	-1289
▁History	-1290
ource	-1291
get	-1292
yn	-1293
ides	-1294
▁contact	-1295
21	-1296
▁Ins	-1297
▁·	-1298
ENT	-1299
▁Reviews	-1300
au	-1301
con	-1302
▁ass	-1303
urs	-1304
90	-1305
▁menu	-1306
angu	-1307
▁items	-1308
IV	-1309
▁Str	-1310
rol	-1311
▁prof	-1312
▁go	-1313
ason	-1314
inter	-1315
▁these	-1316
▁rel	-1317
▁sec	-1318
essage	-1319
vious	-1320
▁Live	-1321
▁Pay	-1322
aster	-1323
▁Other	-1324
▁Data	-1325
▁Ann	-1326
▁her	-1327
95	-1328
▁Elect	-1329
▁Form	-1330
▁AI	-1331
▁Cle	-1332
▁Archives	-1333
erc	-1334
omen	-1335
▁22	-1336
▁Wed	-1337
▁team	-1338
▁Dep	-1339
▁Password	-1340
▁ed	-1341
▁Bar	-1342
77	-1343
▁Test	-1344
▁some	-1345
▁make	-1346
▁Powered	-1347
IG	-1348
▁Stre	-1349
ose	-1350
LE	-1351
urity	-1352
▁rep	-1353
ats	-1354
▁find	-1355
▁Aw	-1356
less	-1357
▁bel	-1358
▁Cor	-1359
mail	-1360
oint	-1361
ature	-1362
▁mod	-1363
▁Video	-1364
US	-1365
▁Est	-1366
▁back	-1367
▁log	-1368
▁ago	-1369
adem	-1370
eep	-1371
ocum	-1372
res	-1373
▁Vol	-1374
IP	-1375
▁inv	-1376
▁Tool	-1377
▁Last	-1378
ross	-1379
▁when	-1380
▁https	-1381
icle	-1382
oogle	-1383
list	-1384
▁Forum	-1385
-3	-1386
▁Board	-1387
▁She	-1388
▁Toggle	-1389
enn	-1390
loy	-1391
▁Hot	-1392
▁Site	-1393
ox	-1394
▁Sale	-1395
▁Black	-1396
▁Digital	-1397
uro	-1398
▁vide	-1399
eel	-1400
▁Press	-1401
▁Management	-1402
▁Day	-1403
▁them	-1404
▁Library	-1405
umb	-1406
ren	-1407
ved	-1408
▁Edit	-1409
/20	-1410
ouch	-1411
▁Met	-1412
▁che	-1413
▁TH	-1414
▁med	-1415
lob	-1416
▁50	-1417
▁Amer	-1418
wn	-1419
aj	-1420
▁Social	-1421
▁Advert	-1422
▁services	-1423
▁Expl	-1424
▁Mag	-1425
▁Education	-1426
▁£	-1427
▁custom	-1428
ified	-1429
▁Report	-1430
▁know	-1431
▁his	-1432
28	-1433
44	-1434
▁@	-1435
▁navigation	-1436
▁used	-1437
use	-1438
▁techn	-1439
SS	-1440
▁upd	-1441
▁Brow	-1442
ters	-1443
▁Aut	-1444
▁AB	-1445
ider	-1446
esent	-1447
▁Call	-1448
ured	-1449
▁home	-1450
ental	-1451
opular	-1452
ference	-1453
▁PM	-1454
▁Sort	-1455
▁main	-1456
OW	-1457
app	-1458
▁Phone	-1459
elf	-1460
,000	-1461
27	-1462
ids	-1463
yl	-1464
▁Sat	-1465
▁Videos	-1466
▁Music	-1467
▁Meet	-1468
▁Guide	-1469
▁Details	-1470
▁...	-1471
▁WordPress	-1472
aim	-1473
▁Start	-1474
ute	-1475
▁Red	-1476
estions	-1477
▁Office	-1478
▁Related	-1479
▁AM	-1480
▁At	-1481
▁browser	-1482
oh	-1483
▁23	-1484
come	-1485
▁Real	-1486
▁view	-1487
▁First	-1488
▁Store	-1489
:30	-1490
▁21	-1491
▁ab	-1492
▁Group	-1493
ven	-1494
ftware	-1495
▁Check	-1496
▁please	-1497
▁project	-1498
ody	-1499
EM	-1500
▁Food	-1501
▁Mon	-1502
▁look	-1503
▁Submit	-1504
anced	-1505
▁2014	-1506
ung	-1507
indow	-1508
▁Newsletter	-1509
▁Connect	-1510
▁Calendar	-1511
▁Learn	-1512
akes	-1513
▁Canc	-1514
▁service	-1515
▁name	-1516
ada	-1517
irl	-1518
man	-1519
▁(0)	-1520
▁most	-1521
▁SH	-1522
▁United	-1523
▁Series	-1524
TM	-1525
lex	-1526
obile	-1527
oss	-1528
▁policy	-1529
▁Google	-1530
▁Vi	-1531
lock	-1532
▁See	-1533
ify	-1534
▁Travel	-1535
ush	-1536
▁Plan	-1537
▁World	-1538
29	-1539
▁Cookie	-1540
ape	-1541
65	-1542
▁CONT	-1543
iday	-1544
33	-1545
▁Development	-1546
ases	-1547
atal	-1548
▁password	-1549
70	-1550
▁{	-1551
iam	-1552
▁offer	-1553
AG	-1554
ACT	-1555
▁Collection	-1556
▁Ab	-1557
▁Char	-1558
▁Club	-1559
▁Hand	-1560
▁than	-1561
back	-1562
▁see	-1563
ple	-1564
75	-1565
irt	-1566
▁tw	-1567
).	-1568
▁just	-1569
ising	-1570
▁Order	-1571
ique	-1572
arn	-1573
▁Info	-1574
▁feat	-1575
ism	-1576
pm	-1577
▁Event	-1578
ene	-1579
▁rem	-1580
▁link	-1581
▁South	-1582
oring	-1583
▁adv	-1584
lete	-1585
▁General	-1586
▁2013	-1587
urg	-1588
ana	-1589
▁world	-1590
way	-1591
4)	-1592
iles	-1593
alth	-1594
▁Type	-1595
▁Sports	-1596
▁val	-1597
▁Jobs	-1598
ending	-1599
▁month	-1600
▁Christ	-1601
ding	-1602
▁Latest	-1603
▁sm	-1604
▁Print	-1605
▁develop	-1606
▁protect	-1607
etwork	-1608
oth	-1609
ploy	-1610
▁Saf	-1611
▁show	-1612
▁stud	-1613
▁Exper	-1614
oor	-1615
▁Year	-1616
▁using	-1617
ounc	-1618
▁Pat	-1619
▁Linked	-1620
▁Request	-1621
▁field	-1622
ecess	-1623
▁Click	-1624
apt	-1625
▁Return	-1626
ublished	-1627
▁Careers	-1628
aper	-1629
▁Partners	-1630
roll	-1631
ERS	-1632
▁people	-1633
oll	-1634
ump	-1635
ense	-1636
▁—	-1637
imes	-1638
▁From	-1639
▁sign	-1640
unities	-1641
▁Park	-1642
▁Address	-1643
▁Upd	-1644
▁provide	-1645
▁Bre	-1646
▁Pack	-1647
ract	-1648
ization	-1649
▁Main	-1650
elcome	-1651
lobal	-1652
asy	-1653
err	-1654
aders	-1655
pport	-1656
istration	-1657
▁RE	-1658
▁phot	-1659
▁there	-1660
▁results	-1661
pect	-1662
▁Technology	-1663
▁Build	-1664
▁user	-1665
ferences	-1666
▁car	-1667
anguage	-1668
urpos	-1669
▁Iss	-1670
35	-1671
ird	-1672
▁40	-1673
▁dr	-1674
ography	-1675
overn	-1676
odc	-1677
ux	-1678
aur	-1679
ills	-1680
▁want	-1681
irm	-1682
),	-1683
elivery	-1684
▁Staff	-1685
▁events	-1686
ecessary	-1687
▁disc	-1688
49	-1689
▁Bro	-1690
▁El	-1691
▁day	-1692
▁book	-1693
▁par	-1694
CC	-1695
▁start	-1696
▁Gl	-1697
-5	-1698
ava	-1699
▁(2)	-1700
▁bl	-1701
▁Ref	-1702
▁NEW	-1703
OUT	-1704
▁28	-1705
▁Life	-1706
▁Training	-1707
▁North	-1708
iver	-1709
eh	-1710
▁found	-1711
▁Content	-1712
▁Who	-1713
by	-1714
ane	-1715
▁26	-1716
▁Hol	-1717
▁sk	-1718
osit	-1719
ients	-1720
ivate	-1721
▁Shipping	-1722
▁International	-1723
▁PRO	-1724
St	-1725
▁War	-1726
▁Full	-1727
oney	-1728
▁clo	-1729
▁care	-1730
clus	-1731
86	-1732
ersion	-1733
ne	-1734
erst	-1735
thing	-1736
hips	-1737
▁pm	-1738
▁Austr	-1739
een	-1740
ottom	-1741
▁Time	-1742
▁Previous	-1743
▁Mot	-1744
▁AN	-1745
ones	-1746
ury	-1747
rict	-1748
▁call	-1749
ustry	-1750
ball	-1751
ffect	-1752
▁Cr	-1753
ccess	-1754
▁personal	-1755
iginal	-1756
▁rece	-1757
▁Feed	-1758
OD	-1759
amb	-1760
che	-1761
iron	-1762
▁comment	-1763
uf	-1764
▁CONTACT	-1765
▁Description	-1766
▁2012	-1767
▁Euro	-1768
▁'	-1769
inc	-1770
ille	-1771
essional	-1772
▁Location	-1773
Sh	-1774
.99	-1775
lev	-1776
▁Member	-1777
▁collect	-1778
▁options	-1779
85	-1780
▁ID	-1781
▁dif	-1782
▁tab	-1783
ipment	-1784
▁Tools	-1785
ribut	-1786
ivity	-1787
▁Supp	-1788
▁€	-1789
fect	-1790
formance	-1791
▁Opt	-1792
▁Comment	-1793
▁29	-1794
▁Cour	-1795
hib	-1796
▁Ov	-1797
ildren	-1798
▁Marketing	-1799
1)	-1800
▁ins	-1801
press	-1802
ather	-1803
unic	-1804
▁well	-1805
ATION	-1806
▁order	-1807
▁Women	-1808
▁Solutions	-1809
play	-1810
▁cas	-1811
atic	-1812
▁Author	-1813
ements	-1814
ream	-1815
li	-1816
▁Key	-1817
board	-1818
aces	-1819
▁West	-1820
▁follow	-1821
ots	-1822
▁Road	-1823
IM	-1824
▁latest	-1825
▁CH	-1826
▁select	-1827
▁process	-1828
ential	-1829
-4	-1830
LC	-1831
ession	-1832
▁Works	-1833
ever	-1834
perty	-1835
▁One	-1836
ral	-1837
▁Of	-1838
▁Fri	-1839
▁Watch	-1840
ored	-1841
▁Pet	-1842
▁dec	-1843
mm	-1844
▁where	-1845
▁days	-1846
AY	-1847
ees	-1848
isc	-1849
▁Her	-1850
▁Sim	-1851
imate	-1852
▁posts	-1853
▁fl	-1854
▁Sum	-1855
▁There	-1856
▁Legal	-1857
▁Save	-1858
▁Browse	-1859
EST	-1860
olution	-1861
aid	-1862
▁Books	-1863
▁Water	-1864
arge	-1865
erview	-1866
ious	-1867
▁Lab	-1868
sc	-1869
OG	-1870
IR	-1871
yp	-1872
viron	-1873
▁visit	-1874
▁z	-1875
▁27	-1876
▁purpos	-1877
200	-1878
son	-1879
avor	-1880
▁Title	-1881
▁Found	-1882
uts	-1883
▁sim	-1884
▁Donate	-1885
▁But	-1886
▁bec	-1887
▁AP	-1888
▁House	-1889
▁Journ	-1890
▁Projects	-1891
.3	-1892
▁Bel	-1893
ulture	-1894
▁provid	-1895
▁Create	-1896
▁Sell	-1897
artment	-1898
ais	-1899
▁Explore	-1900
atform	-1901
▁great	-1902
ification	-1903
comm	-1904
▁Austral	-1905
ves	-1906
raw	-1907
▁set	-1908
ocument	-1909
▁fin	-1910
ESS	-1911
idd	-1912
of	-1913
▁Sing	-1914
▁OF	-1915
atalog	-1916
▁System	-1917
▁Law	-1918
anding	-1919
imited	-1920
▁TV	-1921
ze	-1922
unt	-1923
▁Cam	-1924
▁Mov	-1925
MS	-1926
ests	-1927
urance	-1928
ystems	-1929
▁Games	-1930
▁Street	-1931
etter	-1932
be	-1933
ili	-1934
▁next	-1935
▁should	-1936
de	-1937
▁Why	-1938
▁State	-1939
▁spec	-1940
▁,	-1941
▁under	-1942
▁Review	-1943
-6	-1944
▁does	-1945
▁power	-1946
▁Ge	-1947
▁fil	-1948
ward	-1949
▁ret	-1950
▁long	-1951
wood	-1952
▁THE	-1953
▁were	-1954
▁Har	-1955
▁Light	-1956
▁Green	-1957
bs	-1958
▁Gold	-1959
▁open	-1960
ms	-1961
▁after	-1962
▁Ben	-1963
▁Accessibility	-1964
fl	-1965
▁community	-1966
IA	-1967
ancial	-1968
ele	-1969
hop	-1970
▁don	-1971
▁ens	-1972
▁Tags	-1973
▁2011	-1974
▁market	-1975
▁program	-1976
▁EN	-1977
6)	-1978
▁event	-1979
ishlist	-1980
▁health	-1981
▁Welcome	-1982
OME	-1983
ince	-1984
▁Cancel	-1985
oose	-1986
▁Gift	-1987
ring	-1988
▁Engine	-1989
ged	-1990
▁review	-1991
▁Af	-1992
item	-1993
umn	-1994
▁est	-1995
▁dep	-1996
▁full	-1997
▁Send	-1998
▁Personal	-1999
▁Mic	-2000
▁Local	-2001
ican	-2002
▁Camp	-2003
ourses	-2004
▁would	-2005
▁number	-2006
ators	-2007
▁Advanced	-2008
AB	-2009
par	-2010
▁Podc	-2011
▁Articles	-2012
▁Customer	-2013
uman	-2014
▁National	-2015
OC	-2016
to	-2017
▁Fun	-2018
▁SU	-2019
▁must	-2020
▁Color	-2021
td	-2022
▁below	-2023
ination	-2024
▁PR	-2025
▁Photo	-2026
rop	-2027
lands	-2028
▁Category	-2029
ords	-2030
▁FAQs	-2031
▁public	-2032
▁Att	-2033
▁bottom	-2034
▁(5	-2035
▁AR	-2036
inue	-2037
▁Box	-2038
▁Rest	-2039
▁Fre	-2040
▁Story	-2041
vironment	-2042
▁Sl	-2043
.,	-2044
▁ABOUT	-2045
ival	-2046
▁fri	-2047
▁Bal	-2048
▁Creat	-2049
ettings	-2050
▁Science	-2051
▁Invest	-2052
uture	-2053
1.	-2054
ways	-2055
▁Card	-2056
OUR	-2057
lege	-2058
ules	-2059
▁White	-2060
apan	-2061
▁pay	-2062
▁Family	-2063
▁att	-2064
▁La	-2065
▁way	-2066
▁Number	-2067
▁direct	-2068
78	-2069
ufact	-2070
ategor	-2071
lication	-2072
:0	-2073
▁AL	-2074
ches	-2075
34	-2076
nes	-2077
nov	-2078
oups	-2079
▁Rad	-2080
▁Size	-2081
▁conf	-2082
▁details	-2083
quire	-2084
▁SE	-2085
▁class	-2086
ara	-2087
▁own	-2088
▁Java	-2089
▁Week	-2090
▁navigate	-2091
fore	-2092
▁real	-2093
dition	-2094
pens	-2095
▁Tod	-2096
▁she	-2097
www	-2098
vent	-2099
▁Tag	-2100
▁build	-2101
▁Men	-2102
▁Overview	-2103
-8	-2104
▁<	-2105
▁la	-2106
▁Bec	-2107
▁States	-2108
ername	-2109
asket	-2110
▁Foot	-2111
▁60	-2112
▁1.	-2113
ended	-2114
▁many	-2115
▁Current	-2116
outube	-2117
▁Track	-2118
▁video	-2119
▁Software	-2120
▁Aud	-2121
▁co	-2122
ka	-2123
▁Make	-2124
▁made	-2125
36	-2126
▁week	-2127
ethod	-2128
▁life	-2129
Com	-2130
ohn	-2131
▁Leave	-2132
39	-2133
RA	-2134
▁Sup	-2135
ger	-2136
▁Cert	-2137
▁date	-2138
ruction	-2139
▁Estate	-2140
1,	-2141
▁special	-2142
55	-2143
UT	-2144
osp	-2145
oice	-2146
▁Academ	-2147
▁Europe	-2148
▁Popular	-2149
ergy	-2150
▁Navig	-2151
UL	-2152
▁SP	-2153
dule	-2154
▁Sun	-2155
▁Tem	-2156
istics	-2157
▁India	-2158
net	-2159
ros	-2160
▁Flo	-2161
▁Past	-2162
38	-2163
▁CO	-2164
▁Casino	-2165
▁Organ	-2166
▁check	-2167
▁Fund	-2168
▁People	-2169
▁Sur	-2170
▁right	-2171
▁text	-2172
ume	-2173
orage	-2174
37	-2175
▁Message	-2176
▁such	-2177
▁again	-2178
CT	-2179
▁Code	-2180
itional	-2181
▁Associ	-2182
▁‘	-2183
uit	-2184
ilities	-2185
▁Ear	-2186
▁Lic	-2187
▁Cookies	-2188
▁current	-2189
▁low	-2190
hedule	-2191
anks	-2192
tain	-2193
▁without	-2194
cle	-2195
▁Head	-2196
eet	-2197
▁Image	-2198
chool	-2199
▁Bi	-2200
ered	-2201
▁fac	-2202
▁Hours	-2203
CE	-2204
IB	-2205
▁two	-2206
unte	-2207
▁Sund	-2208
▁stat	-2209
▁vari	-2210
IF	-2211
▁Tour	-2212
aging	-2213
▁gener	-2214
▁Mobile	-2215
IST	-2216
aching	-2217
ashion	-2218
▁while	-2219
▁el	-2220
▁Def	-2221
▁organ	-2222
▁San	-2223
ope	-2224
▁Big	-2225
▁ext	-2226
▁Collections	-2227
}}	-2228
▁(3)	-2229
▁Cap	-2230
▁leg	-2231
icies	-2232
▁King	-2233
2.	-2234
▁resp	-2235
▁Network	-2236
▁2010	-2237
▁Govern	-2238
icing	-2239
▁Here	-2240
claim	-2241
ico	-2242
▁Global	-2243
vel	-2244
▁Unc	-2245
ength	-2246
▁Corpor	-2247
▁Directory	-2248
yd	-2249
▁Language	-2250
UN	-2251
▁et	-2252
▁Sil	-2253
coming	-2254
96	-2255
ng	-2256
ause	-2257
ittle	-2258
▁char	-2259
ilt	-2260
▁take	-2261
▁impro	-2262
▁Results	-2263
▁cop	-2264
▁Room	-2265
??	-2266
▁Over	-2267
itemap	-2268
joy	-2269
ection	-2270
▁quality	-2271
▁Ed	-2272
eak	-2273
▁Wall	-2274
ishing	-2275
▁Brand	-2276
ategorized	-2277
uch	-2278
▁Sal	-2279
▁HOME	-2280
▁offers	-2281
▁USA	-2282
▁Most	-2283
▁shop	-2284
▁today	-2285
▁iss	-2286
▁Loading	-2287
▁Pres	-2288
▁Security	-2289
Ch	-2290
46	-2291
▁Dist	-2292
gin	-2293
▁web	-2294
▁count	-2295
48	-2296
ferent	-2297
▁allow	-2298
ney	-2299
aries	-2300
other	-2301
▁Good	-2302
▁Awards	-2303
arden	-2304
ders	-2305
7)	-2306
idge	-2307
▁last	-2308
▁Parts	-2309
▁CA	-2310
abled	-2311
▁Porn	-2312
pportunities	-2313
▁tool	-2314
box	-2315
▁share	-2316
▁Delivery	-2317
IES	-2318
ret	-2319
▁good	-2320
▁create	-2321
▁Employ	-2322
100	-2323
▁Photos	-2324
▁Well	-2325
▁place	-2326
▁Repair	-2327
▁Sales	-2328
the	-2329
Tube	-2330
antity	-2331
▁Featured	-2332
98	-2333
▁Stand	-2334
CA	-2335
raft	-2336
▁John	-2337
ustain	-2338
DF	-2339
for	-2340
▁Mond	-2341
▁game	-2342
aily	-2343
▁before	-2344
ief	-2345
imon	-2346
etting	-2347
▁red	-2348
▁Tips	-2349
▁protected	-2350
▁Game	-2351
DS	-2352
▁Profile	-2353
orial	-2354
Script	-2355
ATE	-2356
ager	-2357
ellow	-2358
interest	-2359
▁Shopping	-2360
erman	-2361
▁each	-2362
cul	-2363
▁inc	-2364
ables	-2365
/0	-2366
▁Whe	-2367
▁ref	-2368
elebr	-2369
▁These	-2370
ivid	-2371
vers	-2372
▁including	-2373
▁via	-2374
ances	-2375
▁click	-2376
▁Programs	-2377
sw	-2378
▁system	-2379
ma	-2380
▁consent	-2381
ALL	-2382
▁company	-2383
▁Discover	-2384
ams	-2385
adership	-2386
TER	-2387
▁Del	-2388
▁key	-2389
eder	-2390
▁Mal	-2391
▁hand	-2392
dom	-2393
▁Prem	-2394
iences	-2395
PS	-2396
isk	-2397
▁Text	-2398
▁Mater	-2399
▁Ant	-2400
ffic	-2401
pact	-2402
▁Stories	-2403
97	-2404
iance	-2405
▁Stock	-2406
Pr	-2407
▁Ltd	-2408
▁County	-2409
▁College	-2410
▁Di	-2411
aby	-2412
eter	-2413
▁eng	-2414
▁Japan	-2415
▁LinkedIn	-2416
fol	-2417
▁UK	-2418
▁cal	-2419
▁cent	-2420
▁Canada	-2421
▁Sitemap	-2422
ads	-2423
ham	-2424
▁Mil	-2425
▁Student	-2426
▁Safety	-2427
mes	-2428
▁Forg	-2429
struction	-2430
ml	-2431
8)	-2432
sed	-2433
▁Cloud	-2434
ait	-2435
▁ob	-2436
▁Mo	-2437
▁Month	-2438
▁York	-2439
▁cle	-2440
▁cor	-2441
▁Posted	-2442
▁{{	-2443
ges	-2444
▁Gen	-2445
▁Today	-2446
▁family	-2447
▁AD	-2448
▁vi	-2449
omes	-2450
ercial	-2451
▁Australia	-2452
▁Membership	-2453
TH	-2454
▁Bas	-2455
▁Catalog	-2456
▁required	-2457
ipp	-2458
uter	-2459
▁Sol	-2460
▁image	-2461
ki	-2462
▁agree	-2463
▁links	-2464
ya	-2465
book	-2466
conom	-2467
▁download	-2468
med	-2469
▁File	-2470
ault	-2471
▁mater	-2472
▁Commercial	-2473
▁features	-2474
▁connect	-2475
ores	-2476
▁Set	-2477
▁Case	-2478
▁Every	-2479
▁Monday	-2480
Cont	-2481
ample	-2482
▁Girl	-2483
▁Tech	-2484
▁Archive	-2485
▁TO	-2486
The	-2487
▁Sunday	-2488
▁Star	-2489
▁Consult	-2490
▁Ne	-2491
etween	-2492
▁categ	-2493
▁store	-2494
▁request	-2495
▁register	-2496
▁appro	-2497
▁Friday	-2498
▁Instit	-2499
▁Country	-2500
atural	-2501
3)	-2502
aving	-2503
ining	-2504
itions	-2505
▁Medical	-2506
egr	-2507
onus	-2508
▁hours	-2509
ctional	-2510
▁YouTube	-2511
otal	-2512
fr	-2513
▁ear	-2514
▁expl	-2515
DU	-2516
▁CL	-2517
▁sw	-2518
▁(20	-2519
▁Just	-2520
▁supp	-2521
achine	-2522
▁Spons	-2523
ently	-2524
▁Wood	-2525
▁Courses	-2526
▁Equipment	-2527
utes	-2528
1-	-2529
▁Features	-2530
alyt	-2531
▁Prov	-2532
na	-2533
ugg	-2534
▁keep	-2535
▁prom	-2536
▁Recip	-2537
▁mult	-2538
claimer	-2539
▁JavaScript	-2540
spir	-2541
▁aut	-2542
▁non	-2543
▁Blue	-2544
▁love	-2545
ivities	-2546
▁Non	-2547
▁Control	-2548
UM	-2549
▁Jack	-2550
▁Subject	-2551
KS	-2552
▁Afric	-2553
▁casino	-2554
rite	-2555
ledge	-2556
▁When	-2557
▁Clear	-2558
:5	-2559
▁media	-2560
▁User	-2561
▁Industr	-2562
▁research	-2563
esh	-2564
▁1,	-2565
aning	-2566
▁Learning	-2567
Sp	-2568
▁HD	-2569
▁Old	-2570
▁Mark	-2571
▁mov	-2572
ta	-2573
ler	-2574
atter	-2575
▁very	-2576
redit	-2577
ville	-2578
▁ON	-2579
▁LLC	-2580
▁Tax	-2581
azine	-2582
ting	-2583
era	-2584
▁Fire	-2585
▁Need	-2586
▁Statement	-2587
▁Cy	-2588
▁Reply	-2589
66	-2590
go	-2591
abor	-2592
▁admin	-2593
rew	-2594
▁Vis	-2595
lot	-2596
▁Ep	-2597
istry	-2598
▁Navigation	-2599
47	-2600
▁saf	-2601
▁Private	-2602
▁Ob	-2603
asts	-2604
▁Hard	-2605
▁Mult	-2606
▁Aff	-2607
▁Oper	-2608
▁different	-2609
▁games	-2610
▁Filter	-2611
▁within	-2612
▁members	-2613
nd	-2614
Re	-2615
▁local	-2616
▁works	-2617
ony	-2618
ocus	-2619
icial	-2620
oes	-2621
▁bo	-2622
▁equ	-2623
▁underst	-2624
▁Schedule	-2625
▁IT	-2626
▁looking	-2627
lin	-2628
mas	-2629
▁fr	-2630
iction	-2631
ida	-2632
ford	-2633
▁mus	-2634
▁oper	-2635
▁rest	-2636
ole	-2637
unch	-2638
▁partic	-2639
▁American	-2640
32	-2641
PL	-2642
▁Notice	-2643
▁80	-2644
▁run	-2645
▁Youtube	-2646
roid	-2647
▁Jew	-2648
ifest	-2649
light	-2650
▁receive	-2651
▁working	-2652
ye	-2653
▁del	-2654
portant	-2655
ender	-2656
time	-2657
SC	-2658
0.00	-2659
efits	-2660
▁Under	-2661
▁social	-2662
pert	-2663
▁Dem	-2664
",	-2665
ECT	-2666
ORE	-2667
▁uses	-2668
IVE	-2669
▁Exhib	-2670
▁had	-2671
▁East	-2672
▁NEWS	-2673
▁Theme	-2674
▁reply	-2675
▁Admin	-2676
▁sur	-2677
▁Journal	-2678
▁plan	-2679
▁months	-2680
▁Uncategorized	-2681
thers	-2682
▁published	-2683
anch	-2684
▁job	-2685
▁Whats	-2686
▁range	-2687
▁Policies	-2688
App	-2689
ERV	-2690
hel	-2691
▁DE	-2692
▁Views	-2693
issions	-2694
▁Remember	-2695
irth	-2696
▁Arts	-2697
auty	-2698
▁pass	-2699
ainten	-2700
▁creat	-2701
▁Mission	-2702
▁Department	-2703
▁Dev	-2704
▁www	-2705
▁mark	-2706
ickets	-2707
care	-2708
▁dev	-2709
▁Prom	-2710
▁Autom	-2711
▁08	-2712
▁FL	-2713
itect	-2714
▁being	-2715
▁around	-2716
▁down	-2717
▁After	-2718
oles	-2719
▁Kids	-2720
tainment	-2721
▁Fashion	-2722
añ	-2723
▁Testimon	-2724
9)	-2725
ky	-2726
▁item	-2727
oung	-2728
▁purch	-2729
Not	-2730
▁code	-2731
za	-2732
door	-2733
▁tem	-2734
▁Know	-2735
▁poss	-2736
▁Satur	-2737
▁elect	-2738
ris	-2739
▁Anim	-2740
odes	-2741
▁Bed	-2742
▁file	-2743
Ph	-2744
▁meet	-2745
▁newsletter	-2746
▁feed	-2747
▁Publications	-2748
uff	-2749
anies	-2750
aintenance	-2751
▁Disclaimer	-2752
ota	-2753
arks	-2754
▁Mer	-2755
▁Mor	-2756
estion	-2757
▁Mount	-2758
▁Centre	-2759
▁--	-2760
▁def	-2761
alys	-2762
▁Step	-2763
▁even	-2764
▁(4)	-2765
▁COM	-2766
aming	-2767
atory	-2768
▁Flor	-2769
▁grow	-2770
indows	-2771
▁Volunte	-2772
iff	-2773
▁RSS	-2774
▁Rock	-2775
▁then	-2776
▁Church	-2777
folio	-2778
ondon	-2779
▁change	-2780
olf	-2781
31	-2782
eck	-2783
ums	-2784
▁live	-2785
ny	-2786
▁type	-2787
▁between	-2788
▁Available	-2789
ht	-2790
▁Become	-2791
▁Username	-2792
▁development	-2793
▁pack	-2794
inu	-2795
▁UN	-2796
ouncil	-2797
airs	-2798
▁Will	-2799
-2	-2800
PM	-2801
iber	-2802
▁Ext	-2803
▁Registration	-2804
irts	-2805
▁End	-2806
▁Kn	-2807
ington	-2808
irtual	-2809
▁reviews	-2810
▁Corporate	-2811
="	-2812
▁ann	-2813
▁exc	-2814
email	-2815
-7	-2816
ART	-2817
▁Topics	-2818
▁across	-2819
▁invest	-2820
ived	-2821
▁Ang	-2822
▁Advertise	-2823
▁BL	-2824
▁Sen	-2825
icks	-2826
▁Pinterest	-2827
▁Win	-2828
▁based	-2829
▁Install	-2830
▁questions	-2831
":	-2832
my	-2833
▁Protect	-2834
▁message	-2835
▁Entertainment	-2836
ae	-2837
oft	-2838
▁both	-2839
▁stock	-2840
ifications	-2841
.6	-2842
adu	-2843
place	-2844
▁Area	-2845
mission	-2846
iat	-2847
▁Rom	-2848
anges	-2849
▁35	-2850
▁Pan	-2851
▁Committ	-2852
IAL	-2853
ily	-2854
iple	-2855
▁som	-2856
▁size	-2857
▁©20	-2858
lt	-2859
▁Tur	-2860
▁Groups	-2861
▁Master	-2862
▁updates	-2863
ij	-2864
zz	-2865
▁«	-2866
ries	-2867
▁Flow	-2868
▁sure	-2869
▁Saturday	-2870
▁Wedding	-2871
▁enter	-2872
▁America	-2873
▁big	-2874
▁Mc	-2875
▁Ver	-2876
▁Long	-2877
▁blog	-2878
ructure	-2879
▁Bank	-2880
▁interest	-2881
▁90	-2882
▁Sex	-2883
▁MA	-2884
▁Let	-2885
Tr	-2886
▁FOR	-2887
▁Process	-2888
appy	-2889
▁test	-2890
lement	-2891
▁NY	-2892
▁Podcast	-2893
▁Strateg	-2894
ama	-2895
▁end	-2896
▁yet	-2897
▁cost	-2898
roduct	-2899
▁Brands	-2900
▁purposes	-2901
▁Dat	-2902
▁shar	-2903
▁London	-2904
ifts	-2905
▁2009	-2906
▁stand	-2907
▁Accept	-2908
▁during	-2909
▁vis	-2910
▁Rent	-2911
idential	-2912
▁Property	-2913
▁Insurance	-2914
▁Questions	-2915
icon	-2916
▁00	-2917
▁intern	-2918
▁Locations	-2919
▁AND	-2920
▁Course	-2921
.4	-2922
uel	-2923
▁SK	-2924
olved	-2925
alysis	-2926
▁journ	-2927
▁track	-2928
▁Phil	-2929
▁Table	-2930
▁Document	-2931
▁met	-2932
▁present	-2933
AND	-2934
verage	-2935
istribut	-2936
▁Building	-2937
ude	-2938
▁PL	-2939
▁Look	-2940
ground	-2941
▁comments	-2942
▁di	-2943
▁Hear	-2944
▁Dom	-2945
▁times	-2946
iki	-2947
▁Ask	-2948
▁Exp	-2949
ounts	-2950
▁industry	-2951
aph	-2952
php	-2953
edia	-2954
ieve	-2955
▁map	-2956
alian	-2957
istance	-2958
ually	-2959
▁Trust	-2960
▁small	-2961
▁platform	-2962
BB	-2963
▁Rob	-2964
▁pat	-2965
istor	-2966
▁could	-2967
▁school	-2968
▁Testimonials	-2969
▁Host	-2970
▁projects	-2971
▁BO	-2972
▁old	-2973
▁success	-2974
REE	-2975
▁Stay	-2976
itchen	-2977
▁report	-2978
▁Systems	-2979
not	-2980
clusive	-2981
▁ensure	-2982
79	-2983
▁Council	-2984
▁Returns	-2985
▁Cur	-2986
▁cour	-2987
▁Limited	-2988
▁Christmas	-2989
▁Pe	-2990
ecut	-2991
▁ess	-2992
▁Garden	-2993
▁Partner	-2994
ORT	-2995
▁Wishlist	-2996
añol	-2997
mark	-2998
▁Esp	-2999
-10	-3000
reg	-3001
▁educ	-3002
ifestyle	-3003
▁Financial	-3004
▁Leadership	-3005
▁hot	-3006
▁give	-3007
▁Great	-3008
▁Children	-3009
▁following	-3010
ilar	-3011
▁Spec	-3012
▁Beach	-3013
ster	-3014
▁lic	-3015
▁Love	-3016
alytics	-3017
▁↳	-3018
▁Cost	-3019
▁Thank	-3020
▁Required	-3021
cent	-3022
▁Apply	-3023
▁videos	-3024
▁sex	-3025
▁Season	-3026
▁ben	-3027
IGH	-3028
▁IS	-3029
▁join	-3030
▁Indian	-3031
▁fields	-3032
ette	-3033
ised	-3034
▁Gal	-3035
▁area	-3036
▁Foundation	-3037
ague	-3038
▁They	-3039
2,	-3040
here	-3041
▁Any	-3042
▁port	-3043
▁Career	-3044
!!	-3045
▁Items	-3046
ospital	-3047
▁member	-3048
OK	-3049
INE	-3050
ani	-3051
ader	-3052
▁Tel	-3053
ctions	-3054
▁ident	-3055
fort	-3056
▁conditions	-3057
▁buy	-3058
3.	-3059
AV	-3060
▁Index	-3061
▁Issue	-3062
ona	-3063
▁Dog	-3064
▁dem	-3065
▁those	-3066
PR	-3067
itation	-3068
▁Er	-3069
▁try	-3070
▁install	-3071
ena	-3072
▁OR	-3073
ething	-3074
▁Manufact	-3075
▁That	-3076
perties	-3077
▁Original	-3078
anç	-3079
▁LE	-3080
▁Max	-3081
imary	-3082
▁Mont	-3083
▁needs	-3084
▁Professional	-3085
SE	-3086
▁Paper	-3087
▁Manage	-3088
▁effect	-3089
ogn	-3090
eful	-3091
ypes	-3092
▁Dav	-3093
itted	-3094
▁Choose	-3095
TA	-3096
nown	-3097
▁Magazine	-3098
Ad	-3099
ugu	-3100
▁cert	-3101
▁Super	-3102
TC	-3103
▁Mac	-3104
▁vol	-3105
▁much	-3106
▁Schol	-3107
▁enjoy	-3108
94	-3109
oe	-3110
iful	-3111
▁Nor	-3112
▁Pal	-3113
▁sit	-3114
▁China	-3115
▁Thurs	-3116
oph	-3117
▁Tex	-3118
▁Only	-3119
▁Tele	-3120
ha	-3121
ikes	-3122
lass	-3123
▁Tim	-3124
endly	-3125
▁better	-3126
▁record	-3127
▁es	-3128
ison	-3129
-2026	-3130
▁Studio	-3131
.1	-3132
oon	-3133
izing	-3134
▁Portal	-3135
▁author	-3136
Ex	-3137
hi	-3138
▁01	-3139
▁Ap	-3140
lies	-3141
▁Pract	-3142
▁terms	-3143
▁Hy	-3144
▁TR	-3145
otes	-3146
arian	-3147
ready	-3148
uthors	-3149
▁Study	-3150
▁Style	-3151
los	-3152
iter	-3153
▁Mel	-3154
▁ide	-3155
field	-3156
ouble	-3157
▁Conf	-3158
iture	-3159
▁Chat	-3160
ancing	-3161
▁Total	-3162
ios	-3163
▁Lat	-3164
▁Annual	-3165
▁Payment	-3166
▁Reports	-3167
▁IP	-3168
▁Mem	-3169
house	-3170
ania	-3171
▁air	-3172
xx	-3173
ronic	-3174
▁touch	-3175
▁Made	-3176
▁version	-3177
▁=	-3178
une	-3179
▁EV	-3180
▁Arr	-3181
▁Give	-3182
▁Paint	-3183
autiful	-3184
arant	-3185
▁views	-3186
ced	-3187
▁window	-3188
▁Environment	-3189
76	-3190
ca	-3191
add	-3192
▁bas	-3193
▁necessary	-3194
▁09	-3195
cont	-3196
▁deliv	-3197
▁pract	-3198
Ar	-3199
ugs	-3200
▁45	-3201
▁USD	-3202
▁Bath	-3203
idence	-3204
vey	-3205
▁Smart	-3206
▁light	-3207
ologies	-3208
▁Finance	-3209
▁improve	-3210
▁Published	-3211
ailing	-3212
▁Apple	-3213
ulation	-3214
▁Electric	-3215
▁Quote	-3216
▁control	-3217
kt	-3218
aug	-3219
▁print	-3220
ians	-3221
▁Yes	-3222
▁arr	-3223
▁food	-3224
▁match	-3225
▁history	-3226
▁popular	-3227
ado	-3228
▁Oil	-3229
elling	-3230
▁Central	-3231
▁Application	-3232
▁Forgot	-3233
▁unique	-3234
▁Culture	-3235
▁perfect	-3236
▁Creative	-3237
ops	-3238
ror	-3239
▁Bay	-3240
▁Forums	-3241
▁II	-3242
ained	-3243
▁Small	-3244
▁Thursday	-3245
▁professional	-3246
iate	-3247
iven	-3248
▁Baby	-3249
▁fund	-3250
▁sing	-3251
ublish	-3252
▁Workshop	-3253
ke	-3254
▁FR	-3255
erap	-3256
▁Land	-3257
▁music	-3258
▁Africa	-3259
▁return	-3260
▁Feedback	-3261
.8	-3262
▁mag	-3263
▁room	-3264
▁Industry	-3265
resh	-3266
▁group	-3267
▁Discuss	-3268
▁Options	-3269
▁feel	-3270
▁2,	-3271
▁Av	-3272
▁aff	-3273
▁win	-3274
utsch	-3275
▁Cand	-3276
itting	-3277
▁learn	-3278
lications	-3279
ita	-3280
met	-3281
ades	-3282
▁Den	-3283
▁Pricing	-3284
▁specific	-3285
▁19,	-3286
▁Line	-3287
ançais	-3288
▁images	-3289
▁Bul	-3290
▁line	-3291
nesday	-3292
▁always	-3293
▁Sustain	-3294
▁created	-3295
ming	-3296
▁Fit	-3297
ehicle	-3298
ensive	-3299
▁Guid	-3300
▁Suite	-3301
gress	-3302
▁Radio	-3303
▁Spring	-3304
▁Vill	-3305
▁Change	-3306
▁security	-3307
--	-3308
▁Hair	-3309
riting	-3310
▁Trail	-3311
urniture	-3312
▁Government	-3313
sy	-3314
zer	-3315
▁EX	-3316
▁Coll	-3317
▁designed	-3318
str	-3319
▁PH	-3320
ined	-3321
▁PDF	-3322
▁few	-3323
▁Fest	-3324
▁Cover	-3325
▁Island	-3326
▁provided	-3327
▁Performance	-3328
▁ا	-3329
▁Polit	-3330
▁digital	-3331
rant	-3332
ively	-3333
oints	-3334
▁100%	-3335
▁Town	-3336
▁easy	-3337
▁Body	-3338
▁Party	-3339
reatment	-3340
▁→	-3341
▁Id	-3342
▁Wash	-3343
▁70	-3344
aged	-3345
▁Div	-3346
▁users	-3347
▁making	-3348
▁privacy	-3349
cm	-3350
-19	-3351
edic	-3352
▁Amaz	-3353
▁management	-3354
put	-3355
que	-3356
iforn	-3357
▁Tues	-3358
▁sl	-3359
itor	-3360
ector	-3361
▁SERV	-3362
TML	-3363
▁bre	-3364
▁Conc	-3365
▁Cards	-3366
▁money	-3367
▁Living	-3368
-9	-3369
MA	-3370
ala	-3371
ening	-3372
▁Innov	-3373
▁Level	-3374
ebsites	-3375
UB	-3376
ls	-3377
ICE	-3378
▁Pa	-3379
▁law	-3380
▁Repl	-3381
leg	-3382
illed	-3383
▁third	-3384
▁Opportunities	-3385
wear	-3386
▁Ent	-3387
▁Premium	-3388
▁31	-3389
▁Kit	-3390
▁subm	-3391
ociety	-3392
▁AS	-3393
▁aud	-3394
▁Thanks	-3395
43	-3396
astic	-3397
▁past	-3398
▁Daily	-3399
▁recomm	-3400
ocuments	-3401
▁License	-3402
▁Association	-3403
▁Photography	-3404
bed	-3405
down	-3406
▁20,	-3407
▁Russ	-3408
▁strateg	-3409
▁possible	-3410
▁$5	-3411
▁Net	-3412
apers	-3413
▁sales	-3414
▁title	-3415
91	-3416
ini	-3417
amic	-3418
▁Sem	-3419
▁require	-3420
▁Institute	-3421
):	-3422
OLL	-3423
▁Gar	-3424
ched	-3425
andsc	-3426
merce	-3427
▁(5)	-3428
gmail	-3429
▁Auto	-3430
▁Mich	-3431
action	-3432
eather	-3433
▁Model	-3434
▁close	-3435
ifornia	-3436
▁respons	-3437
▁Low	-3438
▁FREE	-3439
change	-3440
▁Sport	-3441
▁accept	-3442
▁Italian	-3443
▁BR	-3444
ints	-3445
▁Veg	-3446
▁Like	-3447
▁Updates	-3448
rum	-3449
▁36	-3450
icket	-3451
▁Spir	-3452
▁Compl	-3453
▁Windows	-3454
▁Students	-3455
▁cap	-3456
▁Fall	-3457
▁Energy	-3458
▁OUR	-3459
▁bro	-3460
epend	-3461
▁Shar	-3462
▁Downloads	-3463
▁Wednesday	-3464
▁solutions	-3465
ano	-3466
ten	-3467
work	-3468
▁let	-3469
istic	-3470
▁space	-3471
▁Portfolio	-3472
.7	-3473
ench	-3474
ises	-3475
▁arch	-3476
▁come	-3477
▁said	-3478
▁Grand	-3479
▁Where	-3480
▁focus	-3481
▁Valley	-3482
▁understand	-3483
ск	-3484
side	-3485
▁Status	-3486
▁complete	-3487
ule	-3488
▁SC	-3489
▁Sn	-3490
▁Bud	-3491
▁Rev	-3492
▁future	-3493
▁Virtual	-3494
IO	-3495
olor	-3496
▁ALL	-3497
▁Hal	-3498
acing	-3499
▁HTML	-3500
▁water	-3501
▁Equals	-3502
cel	-3503
nam	-3504
▁since	-3505
▁customers	-3506
PT	-3507
▁Muse	-3508
▁Place	-3509
▁think	-3510
▁tools	-3511
▁Ut	-3512
▁ow	-3513
▁Vac	-3514
▁host	-3515
▁Advis	-3516
▁Upcoming	-3517
▁Alb	-3518
▁Item	-3519
▁send	-3520
▁Cross	-3521
▁Source	-3522
▁Ren	-3523
ointment	-3524
▁Recipes	-3525
▁Tor	-3526
▁Wal	-3527
▁apply	-3528
▁Continue	-3529
Th	-3530
erts	-3531
acter	-3532
plate	-3533
▁Wild	-3534
▁PC	-3535
▁UR	-3536
▁Fair	-3537
▁case	-3538
▁Engineering	-3539
la	-3540
ued	-3541
▁cookie	-3542
▁Pass	-3543
▁Tuesday	-3544
▁marketing	-3545
▁WE	-3546
▁WH	-3547
ulty	-3548
▁exp	-3549
annel	-3550
▁Basket	-3551
we	-3552
arg	-3553
ENTS	-3554
▁sol	-3555
▁functional	-3556
inese	-3557
▁same	-3558
orship	-3559
▁Texas	-3560
▁Econom	-3561
▁Internet	-3562
bor	-3563
▁ut	-3564
rings	-3565
▁near	-3566
ension	-3567
▁Glass	-3568
▁cover	-3569
present	-3570
▁important	-3571
▁Run	-3572
▁Hall	-3573
enture	-3574
▁Volunteer	-3575
oke	-3576
oom	-3577
▁beh	-3578
▁Have	-3579
leases	-3580
▁Committee	-3581
vailability	-3582
▁Experience	-3583
▁performance	-3584
FF	-3585
▁Je	-3586
izes	-3587
iddle	-3588
arning	-3589
▁Classic	-3590
▁friends	-3591
▁location	-3592
OV	-3593
ARD	-3594
ancy	-3595
▁Mass	-3596
▁Wine	-3597
Un	-3598
do	-3599
▁07	-3600
▁Sa	-3601
aker	-3602
▁Fact	-3603
▁Compare	-3604
▁cr	-3605
acks	-3606
▁Sle	-3607
abase	-3608
▁body	-3609
illion	-3610
▁autom	-3611
▁method	-3612
anta	-3613
▁Bow	-3614
▁Clin	-3615
▁Modern	-3616
▁series	-3617
▁include	-3618
rey	-3619
iger	-3620
inos	-3621
▁hard	-3622
▁Blogs	-3623
▁Pages	-3624
▁Steel	-3625
ultural	-3626
▁did	-3627
rooms	-3628
▁Beauty	-3629
▁individ	-3630
▁75	-3631
▁Hub	-3632
▁ver	-3633
▁2008	-3634
▁Lifestyle	-3635
▁ACC	-3636
▁press	-3637
▁Quality	-3638
▁Restaur	-3639
▁profile	-3640
▁WhatsApp	-3641
▁customer	-3642
QU	-3643
▁things	-3644
42	-3645
val	-3646
▁Action	-3647
▁SHOP	-3648
▁Field	-3649
▁short	-3650
▁Single	-3651
▁proble	-3652
▁step	-3653
▁display	-3654
▁category	-3655
▁IM	-3656
▁Ros	-3657
▁Farm	-3658
▁Miss	-3659
▁Human	-3660
▁story	-3661
▁office	-3662
▁Advertising	-3663
mod	-3664
cial	-3665
▁Cook	-3666
▁person	-3667
▁Meeting	-3668
▁updated	-3669
▁District	-3670
▁Linkedin	-3671
▁technical	-3672
▁California	-3673
▁Industrial	-3674
▁(8	-3675
▁Ir	-3676
▁Touch	-3677
▁second	-3678
UD	-3679
pin	-3680
iting	-3681
▁Bags	-3682
▁Graph	-3683
▁collection	-3684
67	-3685
▁vs	-3686
ging	-3687
▁RES	-3688
▁Heat	-3689
▁card	-3690
▁forum	-3691
▁dom	-3692
▁topics	-3693
▁children	-3694
▁God	-3695
▁PRODU	-3696
▁enable	-3697
▁function	-3698
ayer	-3699
▁Vir	-3700
▁table	-3701
▁Summer	-3702
ACK	-3703
▁mom	-3704
active	-3705
▁added	-3706
▁Conference	-3707
cy	-3708
中文	-3709
tic	-3710
▁Matt	-3711
▁value	-3712
▁Refund	-3713
▁Statistics	-3714
rypt	-3715
▁Ess	-3716
▁Tom	-3717
▁level	-3718
▁Deutsch	-3719
▁Checkout	-3720
▁training	-3721
▁preferences	-3722
89	-3723
pty	-3724
▁1/	-3725
ffee	-3726
▁Resp	-3727
gether	-3728
▁Hotel	-3729
▁option	-3730
▁settings	-3731
▁together	-3732
UST	-3733
▁CR	-3734
▁Pop	-3735
▁Tut	-3736
▁Sand	-3737
ergency	-3738
▁students	-3739
IDE	-3740
▁Motor	-3741
▁River	-3742
▁currently	-3743
.2	-3744
41	-3745
rd	-3746
▁DI	-3747
▁Pin	-3748
ially	-3749
quiry	-3750
▁2007	-3751
▁left	-3752
▁Champ	-3753
▁Construction	-3754
ivals	-3755
▁Decor	-3756
ITY	-3757
key	-3758
▁Hor	-3759
▁Classes	-3760
▁because	-3761
ving	-3762
illing	-3763
▁color	-3764
▁favor	-3765
▁photos	-3766
▁Quantity	-3767
venue	-3768
▁Guides	-3769
▁Record	-3770
▁Scholars	-3771
▁software	-3772
▁technology	-3773
ups	-3774
▁continu	-3775
▁property	-3776
▁Additional	-3777
head	-3778
▁Ser	-3779
asing	-3780
▁able	-3781
▁quick	-3782
ervation	-3783
▁Film	-3784
▁login	-3785
▁storage	-3786
▁Architect	-3787
.95	-3788
Pro	-3789
▁MS	-3790
rown	-3791
▁Italy	-3792
▁European	-3793
▁₹	-3794
ago	-3795
▁sale	-3796
ARE	-3797
IONS	-3798
▁Sam	-3799
▁Youth	-3800
▁Planning	-3801
▁essential	-3802
IGN	-3803
asure	-3804
▁Listen	-3805
▁Take	-3806
▁Vision	-3807
ua	-3808
iod	-3809
ipe	-3810
sel	-3811
urb	-3812
ples	-3813
▁Spot	-3814
elines	-3815
▁Closed	-3816
▁travel	-3817
▁Kitchen	-3818
▁less	-3819
▁Future	-3820
▁Article	-3821
OUN	-3822
▁03	-3823
▁Fram	-3824
▁comb	-3825
▁Inf	-3826
▁Favor	-3827
▁Weight	-3828
▁Outdoor	-3829
▁article	-3830
avy	-3831
▁22,	-3832
▁Keep	-3833
▁Winter	-3834
▁05	-3835
rect	-3836
▁det	-3837
▁http	-3838
ention	-3839
ditional	-3840
▁Las	-3841
itive	-3842
alleng	-3843
▁Tre	-3844
▁Ult	-3845
▁fre	-3846
▁foot	-3847
▁Medic	-3848
▁Scroll	-3849
▁employ	-3850
▁Maintenance	-3851
5)	-3852
Te	-3853
▁Down	-3854
▁Lost	-3855
▁10:00	-3856
▁Audio	-3857
▁Español	-3858
unication	-3859
▁Activity	-3860
▁Designed	-3861
▁registered	-3862
▁UP	-3863
▁Dan	-3864
iding	-3865
quare	-3866
▁France	-3867
▁season	-3868
▁minutes	-3869
▁purpose	-3870
▁contribut	-3871
ael	-3872
off	-3873
▁Font	-3874
▁sent	-3875
▁Kingdom	-3876
hold	-3877
umni	-3878
▁Studies	-3879
ora	-3880
▁mar	-3881
▁Regular	-3882
bon	-3883
▁Fab	-3884
▁Copy	-3885
▁Lake	-3886
▁Drive	-3887
▁Success	-3888
▁Settings	-3889
ero	-3890
imum	-3891
▁hol	-3892
▁though	-3893
▁Natural	-3894
87	-3895
ски	-3896
▁pres	-3897
ajor	-3898
inds	-3899
▁Slo	-3900
ically	-3901
part	-3902
▁Ave	-3903
▁Seat	-3904
ration	-3905
▁Sites	-3906
▁expert	-3907
▁Hospital	-3908
▁SS	-3909
anda	-3910
uals	-3911
▁Tours	-3912
▁still	-3913
▁marked	-3914
▁Standard	-3915
▁9:00	-3916
▁Trade	-3917
▁pages	-3918
▁something	-3919
ston	-3920
▁three	-3921
▁Machine	-3922
.”	-3923
FA	-3924
raz	-3925
self	-3926
▁Mat	-3927
▁Ter	-3928
▁fact	-3929
▁perm	-3930
▁Birth	-3931
▁compl	-3932
▁little	-3933
▁Academy	-3934
pet	-3935
▁06	-3936
ucks	-3937
▁Some	-3938
▁above	-3939
▁house	-3940
osition	-3941
▁Celebr	-3942
▁partners	-3943
pportunity	-3944
face	-3945
▁Blo	-3946
spect	-3947
▁icon	-3948
▁Active	-3949
ja	-3950
raf	-3951
isode	-3952
rosoft	-3953
▁Break	-3954
ecutive	-3955
▁Campus	-3956
▁Society	-3957
df	-3958
iti	-3959
▁AC	-3960
▁ask	-3961
▁Floor	-3962
▁discuss	-3963
▁Benefits	-3964
▁Contribut	-3965
ón	-3966
iet	-3967
▁child	-3968
▁Transport	-3969
▁Girls	-3970
▁Tickets	-3971
▁Contacts	-3972
▁02	-3973
▁Child	-3974
▁Compet	-3975
▁powered	-3976
asc	-3977
mar	-3978
▁PA	-3979
▁Glo	-3980
▁Dress	-3981
▁Homes	-3982
▁source	-3983
roduction	-3984
▁purchase	-3985
BA	-3986
den	-3987
orge	-3988
umin	-3989
▁Night	-3990
▁bonus	-3991
▁Français	-3992
.9	-3993
cks	-3994
ula	-3995
unk	-3996
▁04	-3997
▁BY	-3998
▁Write	-3999
▁human	-4000
69	-4001
▁API	-4002
amber	-4003
▁issues	-4004
▁multiple	-4005
-12	-4006
▁33	-4007
ella	-4008
elry	-4009
▁21,	-4010
inder	-4011
▁Deals	-4012
▁Impact	-4013
▁League	-4014
▁includes	-4015
▁Ham	-4016
▁8:00	-4017
▁French	-4018
▁provides	-4019
rs	-4020
des	-4021
burg	-4022
gy	-4023
▁PO	-4024
rain	-4025
veral	-4026
▁Angel	-4027
▁Transl	-4028
▁compet	-4029
essionals	-4030
▁turn	-4031
▁country	-4032
▁Directions	-4033
▁Bag	-4034
▁Chem	-4035
▁Skin	-4036
▁canc	-4037
istant	-4038
▁Teach	-4039
▁might	-4040
▁result	-4041
′′	-4042
▁15,	-4043
▁Ven	-4044
▁porn	-4045
ousing	-4046
▁Necessary	-4047
▁Technical	-4048
▁Sav	-4049
title	-4050
rec	-4051
ails	-4052
aste	-4053
riter	-4054
▁Deal	-4055
▁head	-4056
▁soon	-4057
▁subs	-4058
▁complet	-4059
▁network	-4060
aditional	-4061
▁particip	-4062
3-	-4063
yal	-4064
▁Ow	-4065
▁cm	-4066
▁(6)	-4067
phone	-4068
▁another	-4069
▁Insights	-4070
▁Furniture	-4071
▁Microsoft	-4072
opt	-4073
▁Cir	-4074
▁Walk	-4075
umbers	-4076
▁incre	-4077
▁Update	-4078
▁material	-4079
aft	-4080
ato	-4081
▁(6	-4082
arter	-4083
▁Song	-4084
▁conc	-4085
▁Short	-4086
▁phone	-4087
▁appear	-4088
▁Edition	-4089
▁clients	-4090
▁additional	-4091
XX	-4092
aus	-4093
▁lot	-4094
▁Mart	-4095
▁Subs	-4096
▁Used	-4097
ealand	-4098
▁Space	-4099
▁Calcul	-4100
▁Friends	-4101
▁(4	-4102
...]	-4103
agon	-4104
▁Age	-4105
▁tax	-4106
▁Little	-4107
▁single	-4108
▁Activities	-4109
ola	-4110
▁box	-4111
▁whe	-4112
eline	-4113
▁Alumni	-4114
▁Chinese	-4115
▁Release	-4116
SA	-4117
▁›	-4118
rem	-4119
wide	-4120
▁Bad	-4121
▁Exc	-4122
▁age	-4123
▁Fast	-4124
▁Gifts	-4125
▁Right	-4126
▁Method	-4127
▁environment	-4128
▁him	-4129
inary	-4130
▁Guest	-4131
▁Authors	-4132
▁disabled	-4133
EX	-4134
htt	-4135
▁17,	-4136
▁Ide	-4137
arget	-4138
inger	-4139
▁Unit	-4140
▁Display	-4141
▁Reading	-4142
▁wishlist	-4143
500	-4144
ooth	-4145
▁Lin	-4146
▁stay	-4147
▁started	-4148
▁shipping	-4149
.20	-4150
bar	-4151
fil	-4152
oted	-4153
ugin	-4154
umer	-4155
▁Ber	-4156
▁Cab	-4157
▁Eth	-4158
▁Lux	-4159
▁Brit	-4160
isting	-4161
▁Museum	-4162
▁related	-4163
ctor	-4164
ocks	-4165
▁Que	-4166
Phone	-4167
▁Soft	-4168
▁Silver	-4169
▁Storage	-4170
▁Japanese	-4171
▁articles	-4172
▁building	-4173
ICK	-4174
▁err	-4175
▁Rules	-4176
▁model	-4177
▁Univers	-4178
▁)	-4179
▁Mid	-4180
fully	-4181
ermany	-4182
▁empty	-4183
▁Weather	-4184
▁Platform	-4185
aps	-4186
ceed	-4187
▁Mix	-4188
▁enh	-4189
▁sum	-4190
▁Affili	-4191
▁Android	-4192
▁Zealand	-4193
▁Ol	-4194
ideb	-4195
▁SKU	-4196
▁unt	-4197
▁hold	-4198
urther	-4199
▁Certific	-4200
▁financial	-4201
Pl	-4202
▁Plant	-4203
▁Images	-4204
▁Listings	-4205
▁consider	-4206
64	-4207
SP	-4208
gar	-4209
page	-4210
idden	-4211
▁Metal	-4212
▁innov	-4213
▁Faculty	-4214
GE	-4215
▁16,	-4216
efore	-4217
erapy	-4218
oices	-4219
▁bring	-4220
lements	-4221
▁cannot	-4222
▁Manager	-4223
unications	-4224
▁32	-4225
oman	-4226
sych	-4227
▁Det	-4228
▁Mex	-4229
▁Two	-4230
▁Way	-4231
▁Coach	-4232
▁black	-4233
▁course	-4234
▁providing	-4235
▁resources	-4236
wp	-4237
ura	-4238
cast	-4239
▁Kar	-4240
▁too	-4241
▁Phys	-4242
▁girl	-4243
▁miss	-4244
▁Shows	-4245
ictures	-4246
▁advert	-4247
ERT	-4248
reads	-4249
▁Corn	-4250
▁Gear	-4251
▁Hill	-4252
▁Pick	-4253
uction	-4254
▁style	-4255
▁mobile	-4256
▁Contract	-4257
.)	-4258
▁3,	-4259
▁6,	-4260
▁BB	-4261
▁QU	-4262
▁Ur	-4263
aign	-4264
▁Editor	-4265
hood	-4266
ires	-4267
▁pot	-4268
itten	-4269
encies	-4270
▁Football	-4271
▁Republic	-4272
sk	-4273
ead	-4274
▁AT	-4275
▁Golf	-4276
▁Train	-4277
▁Station	-4278
AK	-4279
ati	-4280
▁CD	-4281
illa	-4282
▁Mad	-4283
arrow	-4284
istan	-4285
acement	-4286
isation	-4287
▁Materials	-4288
61	-4289
SH	-4290
ELL	-4291
▁INF	-4292
▁state	-4293
eve	-4294
oof	-4295
▁10,	-4296
▁Cut	-4297
▁brand	-4298
▁Amazon	-4299
▁continue	-4300
▁copyright	-4301
▁guide	-4302
▁Offers	-4303
▁Florida	-4304
▁beautiful	-4305
fit	-4306
▁SM	-4307
▁URL	-4308
ellig	-4309
▁Chap	-4310
▁answ	-4311
iamond	-4312
▁stored	-4313
▁Filters	-4314
▁Protection	-4315
▁application	-4316
AI	-4317
ply	-4318
▁4,	-4319
▁GR	-4320
▁Atl	-4321
▁OFF	-4322
▁[...]	-4323
ructions	-4324
▁players	-4325
▁55	-4326
sing	-4327
▁Deb	-4328
▁bar	-4329
cruit	-4330
idays	-4331
overy	-4332
▁Talk	-4333
▁David	-4334
▁Movies	-4335
▁Keyword	-4336
▁respect	-4337
▁Advertis	-4338
▁Director	-4339
84	-4340
▁ال	-4341
erve	-4342
▁Pot	-4343
lines	-4344
▁Days	-4345
▁Easy	-4346
▁celebr	-4347
▁orders	-4348
▁learning	-4349
ANT	-4350
▁ne	-4351
▁wr	-4352
▁12,	-4353
▁Money	-4354
▁delivery	-4355
▁Residential	-4356
Up	-4357
Book	-4358
▁POL	-4359
▁mon	-4360
▁MORE	-4361
▁ready	-4362
Sub	-4363
oid	-4364
igin	-4365
▁Hon	-4366
▁why	-4367
otion	-4368
ranty	-4369
▁Arab	-4370
mercial	-4371
FT	-4372
▁Ban	-4373
▁php	-4374
overs	-4375
▁against	-4376
▁perform	-4377
▁question	-4378
▁companies	-4379
aken	-4380
▁Speak	-4381
▁Client	-4382
▁engine	-4383
▁various	-4384
so	-4385
▁Tree	-4386
▁Users	-4387
▁document	-4388
▁DM	-4389
▁Rd	-4390
▁Beg	-4391
iable	-4392
▁Plus	-4393
▁Rich	-4394
▁city	-4395
porary	-4396
▁Court	-4397
▁Sound	-4398
▁board	-4399
▁Artists	-4400
oma	-4401
▁5,	-4402
ICES	-4403
mary	-4404
urer	-4405
▁Door	-4406
▁Grow	-4407
anging	-4408
▁Brown	-4409
▁basket	-4410
▁Portugu	-4411
IE	-4412
":"	-4413
▁ep	-4414
▁mem	-4415
▁sup	-4416
▁Hold	-4417
▁Less	-4418
uation	-4419
▁makes	-4420
▁Rental	-4421
▁Schools	-4422
▁websites	-4423
▁Employment	-4424
Con	-4425
▁TX	-4426
inner	-4427
▁tour	-4428
estern	-4429
reland	-4430
ambling	-4431
▁Histor	-4432
▁journey	-4433
▁SAL	-4434
▁Libr	-4435
▁Term	-4436
▁trust	-4437
▁Fellow	-4438
ien	-4439
▁95	-4440
▁NOW	-4441
▁deal	-4442
idebar	-4443
▁Dream	-4444
▁Wellness	-4445
chan	-4446
look	-4447
▁Tal	-4448
based	-4449
print	-4450
▁Mary	-4451
▁Near	-4452
aduate	-4453
otions	-4454
▁Adult	-4455
▁Times	-4456
68	-4457
han	-4458
▁Coun	-4459
ensions	-4460
▁original	-4461
aven	-4462
▁Cat	-4463
ework	-4464
▁Alex	-4465
▁prior	-4466
▁Expert	-4467
GB	-4468
▁14,	-4469
▁Logo	-4470
▁Young	-4471
▁legal	-4472
▁become	-4473
▁consult	-4474
eath	-4475
▁Nut	-4476
▁bal	-4477
▁tot	-4478
itles	-4479
▁parts	-4480
▁valid	-4481
▁Before	-4482
▁Retail	-4483
▁Virgin	-4484
▁Present	-4485
▁Primary	-4486
▁Clothing	-4487
bl	-4488
imal	-4489
▁dat	-4490
▁say	-4491
ament	-4492
▁hear	-4493
▁Round	-4494
▁Remote	-4495
▁systems	-4496
▁Festival	-4497
gg	-4498
AGE	-4499
ias	-4500
News	-4501
▁18,	-4502
frast	-4503
▁camp	-4504
▁coll	-4505
▁Reset	-4506
▁device	-4507
▁Germany	-4508
▁Coaching	-4509
▁Supplies	-4510
▁manufact	-4511
END	-4512
ker	-4513
▁2.	-4514
amin	-4515
▁Mail	-4516
▁Award	-4517
▁leave	-4518
▁energy	-4519
▁England	-4520
▁language	-4521
▁Ath	-4522
▁changes	-4523
2-	-4524
▁34	-4525
▁BE	-4526
onym	-4527
▁update	-4528
ological	-4529
▁Properties	-4530
ês	-4531
▁Δ	-4532
▁300	-4533
▁simple	-4534
▁transl	-4535
criptions	-4536
▁relations	-4537
On	-4538
anged	-4539
anger	-4540
ishes	-4541
prise	-4542
▁wait	-4543
▁going	-4544
▁confirm	-4545
▁Material	-4546
▁Resource	-4547
APT	-4548
▁0%	-4549
▁Ste	-4550
▁Fort	-4551
▁Rentals	-4552
▁several	-4553
","	-4554
oul	-4555
▁GD	-4556
▁aw	-4557
hing	-4558
anish	-4559
▁Cool	-4560
amilies	-4561
GR	-4562
PP	-4563
Eng	-4564
reh	-4565
apes	-4566
▁Mir	-4567
▁Ten	-4568
itary	-4569
▁sell	-4570
▁Themes	-4571
▁impact	-4572
▁modern	-4573
ependent	-4574
▁Holiday	-4575
▁Cleaning	-4576
▁Releases	-4577
▁quantity	-4578
▁Sustainability	-4579
3,	-4580
iece	-4581
lets	-4582
▁Base	-4583
▁Vict	-4584
▁clear	-4585
▁large	-4586
cending	-4587
▁Screen	-4588
▁Version	-4589
▁subject	-4590
▁Lighting	-4591
life	-4592
▁Fix	-4593
▁Asia	-4594
▁Merch	-4595
▁means	-4596
anguages	-4597
andom	-4598
▁Band	-4599
▁Mini	-4600
▁Neck	-4601
plates	-4602
▁Frequ	-4603
▁Orders	-4604
▁Useful	-4605
▁Contains	-4606
AF	-4607
▁ED	-4608
▁cur	-4609
oudly	-4610
▁Paul	-4611
isions	-4612
▁party	-4613
ainless	-4614
▁Issues	-4615
▁Things	-4616
▁Default	-4617
▁Emergency	-4618
uy	-4619
,00	-4620
▁48	-4621
onse	-4622
allen	-4623
appen	-4624
▁Notes	-4625
▁photo	-4626
▁watch	-4627
lor	-4628
oto	-4629
▁fit	-4630
ronics	-4631
▁Rated	-4632
letters	-4633
▁Agency	-4634
▁choose	-4635
▁rating	-4636
missions	-4637
▁stories	-4638
▁Podcasts	-4639
▁Installation	-4640
New	-4641
▁du	-4642
aves	-4643
▁Cup	-4644
▁Los	-4645
▁dedic	-4646
▁button	-4647
▁govern	-4648
andscape	-4649
▁Announc	-4650
Al	-4651
LS	-4652
__	-4653
dr	-4654
uge	-4655
▁flo	-4656
ately	-4657
▁talk	-4658
stract	-4659
▁heart	-4660
▁others	-4661
▁materials	-4662
omb	-4663
▁8,	-4664
▁EU	-4665
▁Fa	-4666
▁Po	-4667
ache	-4668
▁Ball	-4669
▁Match	-4670
▁German	-4671
▁Senior	-4672
▁Jewelry	-4673
▁already	-4674
fri	-4675
ils	-4676
▁Civ	-4677
iller	-4678
▁flow	-4679
▁Coast	-4680
▁Hello	-4681
▁Inspir	-4682
frastructure	-4683
▁Ill	-4684
▁Ken	-4685
▁Try	-4686
power	-4687
▁staff	-4688
▁Recomm	-4689
inations	-4690
▁Ireland	-4691
▁Mountain	-4692
▁Analytics	-4693
ür	-4694
-01	-4695
▁65	-4696
....	-4697
ario	-4698
stit	-4699
▁2005	-4700
▁tips	-4701
▁Integr	-4702
▁integr	-4703
▁Christian	-4704
▁Healthcare	-4705
▁description	-4706
Wh	-4707
agn	-4708
▁av	-4709
ocol	-4710
onto	-4711
▁bed	-4712
▁put	-4713
▁Core	-4714
▁star	-4715
▁along	-4716
▁Chamber	-4717
▁similar	-4718
▁equipment	-4719
indi	-4720
rypto	-4721
▁Deep	-4722
▁Block	-4723
essions	-4724
▁Rating	-4725
▁Updated	-4726
▁shopping	-4727
▁Executive	-4728
92	-4729
ORS	-4730
aya	-4731
edu	-4732
▁pe	-4733
▁Emb	-4734
▁LED	-4735
▁Condition	-4736
74	-4737
CHA	-4738
▁EP	-4739
inyl	-4740
ship	-4741
▁Dub	-4742
▁Bill	-4743
▁sites	-4744
uration	-4745
▁object	-4746
▁Started	-4747
▁Distribut	-4748
alt	-4749
ión	-4750
bert	-4751
▁Maps	-4752
▁ever	-4753
▁Bonus	-4754
essages	-4755
▁Credit	-4756
eral	-4757
idth	-4758
▁Syn	-4759
▁Roof	-4760
▁Want	-4761
▁Shoes	-4762
▁maint	-4763
▁previous	-4764
BO	-4765
▁Cro	-4766
▁MEN	-4767
▁Tik	-4768
ensed	-4769
▁Appro	-4770
Current	-4771
oration	-4772
Required	-4773
▁President	-4774
ao	-4775
-05	-4776
ASS	-4777
▁HE	-4778
just	-4779
▁Cru	-4780
▁Hire	-4781
▁Kore	-4782
▁really	-4783
▁Showing	-4784
▁Commission	-4785
no	-4786
men	-4787
▁Du	-4788
▁13,	-4789
▁Pak	-4790
▁Sold	-4791
▁term	-4792
▁Forms	-4793
▁index	-4794
▁Coffee	-4795
▁Upload	-4796
IZ	-4797
bit	-4798
▁::	-4799
erry	-4800
lier	-4801
▁Jos	-4802
▁enc	-4803
▁ful	-4804
ersey	-4805
▁Sets	-4806
▁Purch	-4807
▁education	-4808
▁Cast	-4809
▁Self	-4810
▁Analysis	-4811
62	-4812
dy	-4813
orry	-4814
otten	-4815
▁self	-4816
▁reading	-4817
▁Official	-4818
Br	-4819
▁28,	-4820
▁never	-4821
▁study	-4822
▁Trending	-4823
▁recommend	-4824
▁SUB	-4825
▁Bike	-4826
▁Drink	-4827
▁Publish	-4828
OB	-4829
300	-4830
▁VI	-4831
reek	-4832
▁strong	-4833
▁Washington	-4834
CL	-4835
uce	-4836
▁Hom	-4837
▁cam	-4838
▁Mach	-4839
▁deep	-4840
▁Pharm	-4841
▁basic	-4842
▁until	-4843
▁Perfect	-4844
▁knowledge	-4845
isl	-4846
▁500	-4847
▁2006	-4848
lights	-4849
▁Franc	-4850
▁Hotels	-4851
▁Middle	-4852
▁Sponsors	-4853
▁activities	-4854
ERY	-4855
▁$1	-4856
▁ART	-4857
▁GET	-4858
avour	-4859
▁Apps	-4860
▁Ideas	-4861
▁known	-4862
▁Express	-4863
▁payment	-4864
▁Politics	-4865
▁Fax	-4866
▁lab	-4867
▁safe	-4868
arding	-4869
ording	-4870
rition	-4871
▁happy	-4872
▁Avenue	-4873
▁selection	-4874
▁Availability	-4875
TV	-4876
ITH	-4877
VID	-4878
▁Bio	-4879
▁wide	-4880
perature	-4881
▁guarant	-4882
▁Guidelines	-4883
▁Introduction	-4884
ided	-4885
well	-4886
▁rev	-4887
rical	-4888
▁Draw	-4889
▁phpBB	-4890
▁detail	-4891
▁skills	-4892
artments	-4893
73	-4894
mp	-4895
mon	-4896
▁Oak	-4897
▁eas	-4898
▁etc	-4899
▁Jump	-4900
▁Feder	-4901
olesale	-4902
▁logged	-4903
72	-4904
hab	-4905
▁85	-4906
ucky	-4907
▁dog	-4908
ellent	-4909
atering	-4910
▁inform	-4911
allenges	-4912
▁Innovation	-4913
▁Documentation	-4914
CS	-4915
Res	-4916
▁9,	-4917
▁Uk	-4918
▁ach	-4919
▁Craft	-4920
▁Second	-4921
▁secure	-4922
▁represent	-4923
eeks	-4924
▁Gas	-4925
▁tag	-4926
akers	-4927
▁Side	-4928
▁prem	-4929
▁often	-4930
▁Indones	-4931
▁private	-4932
▁Computer	-4933
▁Involved	-4934
An	-4935
.50	-4936
alf	-4937
▁39	-4938
etry	-4939
iant	-4940
▁Result	-4941
▁Interest	-4942
▁Ok	-4943
▁His	-4944
▁Pool	-4945
▁$0.00	-4946
▁Broad	-4947
▁Pattern	-4948
▁Whether	-4949
▁opportunities	-4950
▁38	-4951
▁OK	-4952
MENT	-4953
▁Lad	-4954
▁Mom	-4955
▁occ	-4956
▁Chic	-4957
▁fast	-4958
ternal	-4959
vention	-4960
▁advice	-4961
▁Diamond	-4962
sub	-4963
▁Pu	-4964
case	-4965
cons	-4966
home	-4967
cling	-4968
iation	-4969
▁Areas	-4970
▁block	-4971
▁prices	-4972
▁Reference	-4973
▁Publication	-4974
日本	-4975
hol	-4976
▁Sea	-4977
ocket	-4978
▁Fish	-4979
▁Carol	-4980
▁Artist	-4981
▁SERVICES	-4982
▁CE	-4983
▁CS	-4984
▁Anal	-4985
▁pick	-4986
icture	-4987
vement	-4988
▁Clean	-4989
▁Gaming	-4990
▁status	-4991
▁correct	-4992
és	-4993
set	-4994
upt	-4995
▁(7)	-4996
▁TOP	-4997
▁men	-4998
inars	-4999
▁Truck	-5000
▁opportunity	-5001
CR	-5002
▁Wr	-5003
igan	-5004
▁Tun	-5005
▁Rank	-5006
▁tell	-5007
APTCHA	-5008
▁accur	-5009
▁paper	-5010
▁reach	-5011
clusion	-5012
ehicles	-5013
▁global	-5014
▁notice	-5015
▁Proudly	-5016
▁William	-5017
AA	-5018
It	-5019
UE	-5020
rel	-5021
▁MP	-5022
atis	-5023
ired	-5024
▁Dark	-5025
▁away	-5026
▁edit	-5027
leased	-5028
▁Micro	-5029
▁women	-5030
URE	-5031
▁ME	-5032
▁MAR	-5033
▁sav	-5034
https	-5035
▁Dest	-5036
▁Note	-5037
▁Rose	-5038
otional	-5039
▁Parent	-5040
▁Editorial	-5041
/10	-5042
IGHT	-5043
▁Som	-5044
ander	-5045
▁mind	-5046
▁move	-5047
▁repl	-5048
▁vers	-5049
▁further	-5050
93	-5051
gn	-5052
iana	-5053
ienc	-5054
▁25,	-5055
▁Wil	-5056
▁Mast	-5057
▁Movie	-5058
▁helps	-5059
▁Ministry	-5060
▁international	-5061
wa	-5062
ray	-5063
isco	-5064
ester	-5065
▁note	-5066
▁inspir	-5067
▁Islands	-5068
▁Records	-5069
▁medical	-5070
▁Champions	-5071
▁Documents	-5072
▁particular	-5073
250	-5074
imb	-5075
▁AV	-5076
▁11,	-5077
▁Meg	-5078
Price	-5079
emale	-5080
iring	-5081
ooper	-5082
▁Cell	-5083
▁Cott	-5084
▁begin	-5085
▁types	-5086
▁Academic	-5087
▁Consulting	-5088
uj	-5089
tle	-5090
▁slot	-5091
▁Listing	-5092
▁production	-5093
KE	-5094
tw	-5095
har	-5096
ika	-5097
fast	-5098
oval	-5099
▁Sym	-5100
▁mix	-5101
▁Grade	-5102
▁night	-5103
▁Dental	-5104
▁points	-5105
▁comfort	-5106
▁GB	-5107
▁WOR	-5108
apore	-5109
▁Bang	-5110
▁Impro	-5111
▁effic	-5112
▁active	-5113
▁proper	-5114
▁British	-5115
ali	-5116
avas	-5117
▁Ash	-5118
▁pop	-5119
icken	-5120
▁gift	-5121
▁save	-5122
Contact	-5123
▁Dining	-5124
▁Giving	-5125
▁Relations	-5126
oz	-5127
oga	-5128
rees	-5129
reet	-5130
▁Mah	-5131
▁pan	-5132
undle	-5133
▁Rate	-5134
▁analy	-5135
▁Jersey	-5136
▁Practice	-5137
▁approach	-5138
▁visitors	-5139
▁Treatment	-5140
LY	-5141
bol	-5142
izz	-5143
▁Hi	-5144
rics	-5145
▁Lor	-5146
▁Wiki	-5147
▁Front	-5148
▁break	-5149
▁However	-5150
GA	-5151
uz	-5152
▁(0	-5153
▁DR	-5154
▁Fig	-5155
▁Ice	-5156
▁Oce	-5157
grade	-5158
oming	-5159
where	-5160
▁Coup	-5161
▁James	-5162
▁files	-5163
▁point	-5164
allenge	-5165
ulations	-5166
▁condition	-5167
ISS	-5168
▁SW	-5169
berg	-5170
▁Und	-5171
▁Cars	-5172
▁Georg	-5173
▁Offic	-5174
▁total	-5175
▁iPhone	-5176
elligence	-5177
▁Strategy	-5178
▁feedback	-5179
▁everything	-5180
CO	-5181
▁HR	-5182
html	-5183
mith	-5184
▁Gro	-5185
▁VAT	-5186
asons	-5187
eness	-5188
▁Pink	-5189
▁load	-5190
▁Frank	-5191
▁Remove	-5192
."	-5193
FC	-5194
elt	-5195
▁7,	-5196
amps	-5197
free	-5198
aints	-5199
incip	-5200
iques	-5201
▁Entr	-5202
▁four	-5203
edding	-5204
▁comes	-5205
▁sound	-5206
itoring	-5207
▁Region	-5208
▁Commons	-5209
▁feature	-5210
EAR	-5211
oria	-5212
▁24,	-5213
▁Dry	-5214
▁Lot	-5215
▁Fresh	-5216
▁books	-5217
▁tradem	-5218
▁Fitness	-5219
▁Therapy	-5220
▁located	-5221
▁directly	-5222
63	-5223
.00.	-5224
▁cir	-5225
intage	-5226
lywood	-5227
▁Files	-5228
▁Union	-5229
▁Mexico	-5230
▁action	-5231
▁Fishing	-5232
▁Village	-5233
rehensive	-5234
▁Appointment	-5235
ims	-5236
inar	-5237
▁due	-5238
order	-5239
▁sens	-5240
▁11:00	-5241
▁Range	-5242
▁Years	-5243
quiries	-5244
▁credit	-5245
▁Sciences	-5246
▁businesses	-5247
▁categories	-5248
▁Environmental	-5249
Cl	-5250
For	-5251
hem	-5252
▁Mr	-5253
pper	-5254
▁Esc	-5255
▁Occ	-5256
▁Exam	-5257
▁Monthly	-5258
▁session	-5259
▁Medicine	-5260
▁included	-5261
▁Libraries	-5262
urt	-5263
▁1:	-5264
▁MI	-5265
atre	-5266
▁Son	-5267
▁Simple	-5268
▁safety	-5269
ashboard	-5270
▁Western	-5271
▁filters	-5272
▁partner	-5273
▁facebook	-5274
LD	-5275
job	-5276
ulum	-5277
▁NOT	-5278
▁esp	-5279
▁Sens	-5280
▁fuck	-5281
▁jobs	-5282
▁phys	-5283
▁Asian	-5284
▁Heart	-5285
▁Stone	-5286
▁Value	-5287
▁theme	-5288
reement	-5289
▁estate	-5290
▁dedicated	-5291
gi	-5292
ema	-5293
ken	-5294
▁abs	-5295
rafts	-5296
▁Wish	-5297
▁capt	-5298
▁fire	-5299
▁side	-5300
idents	-5301
▁Appar	-5302
▁Spirit	-5303
▁vehicle	-5304
▁Registered	-5305
▁Icon	-5306
▁Lead	-5307
▁Wire	-5308
▁song	-5309
onents	-5310
urgery	-5311
▁expect	-5312
▁living	-5313
▁natural	-5314
▁problem	-5315
ACH	-5316
▁Ma	-5317
outs	-5318
▁Dim	-5319
itage	-5320
▁5:00	-5321
▁Merc	-5322
raight	-5323
▁Double	-5324
▁domain	-5325
▁Consent	-5326
▁favorite	-5327
EE	-5328
400	-5329
azz	-5330
inn	-5331
egree	-5332
▁Barb	-5333
▁analysis	-5334
▁Compliance	-5335
TR	-5336
600	-5337
edy	-5338
▁3.	-5339
▁Oh	-5340
mers	-5341
▁Pur	-5342
▁deb	-5343
▁war	-5344
▁Sout	-5345
▁having	-5346
▁Created	-5347
▁Getting	-5348
▁Looking	-5349
▁Michael	-5350
▁Recruit	-5351
▁Investment	-5352
▁Advertisement	-5353
,"	-5354
/1	-5355
DR	-5356
ITE	-5357
ius	-5358
▁er	-5359
abet	-5360
aced	-5361
repr	-5362
▁(8)	-5363
▁Bur	-5364
▁Cos	-5365
▁LIN	-5366
▁SEO	-5367
duced	-5368
ollar	-5369
▁growth	-5370
izations	-5371
▁Hardware	-5372
▁Stainless	-5373
▁DO	-5374
▁Gh	-5375
▁Far	-5376
▁Reb	-5377
▁wood	-5378
▁major	-5379
▁mission	-5380
▁Complete	-5381
▁benefits	-5382
▁Calculator	-5383
▁LA	-5384
▁Rew	-5385
▁ant	-5386
▁Bear	-5387
▁film	-5388
▁gall	-5389
▁Chart	-5390
▁Disney	-5391
▁Package	-5392
▁Spanish	-5393
ILL	-5394
▁Fly	-5395
ORIES	-5396
iling	-5397
ommod	-5398
orrow	-5399
▁BLOG	-5400
▁role	-5401
▁Earth	-5402
▁Large	-5403
▁weeks	-5404
▁©2026	-5405
82	-5406
Fr	-5407
HS	-5408
Sc	-5409
jp	-5410
▁ES	-5411
▁Rh	-5412
antic	-5413
paper	-5414
▁Capt	-5415
▁Trip	-5416
itable	-5417
pinion	-5418
▁Ident	-5419
▁issue	-5420
▁Nature	-5421
▁affili	-5422
▁guests	-5423
▁plugin	-5424
▁Database	-5425
▁Workshops	-5426
ML	-5427
▁mil	-5428
▁2026.	-5429
▁Cases	-5430
▁Ready	-5431
▁Refer	-5432
▁teach	-5433
Privacy	-5434
▁Weekly	-5435
▁filter	-5436
▁Chicago	-5437
▁Replies	-5438
▁exclusive	-5439
▁technologies	-5440
bet	-5441
Date	-5442
▁Scr	-5443
dings	-5444
▁Happy	-5445
plement	-5446
▁Export	-5447
emporary	-5448
▁Exchange	-5449
▁browsing	-5450
even	-5451
▁mot	-5452
▁sun	-5453
thern	-5454
▁Viet	-5455
▁Multi	-5456
▁areas	-5457
▁error	-5458
▁Through	-5459
▁library	-5460
▁Companies	-5461
”,	-5462
CTS	-5463
ORY	-5464
▁Pow	-5465
iment	-5466
▁COMP	-5467
▁YOUR	-5468
atings	-5469
▁Psych	-5470
▁Vinyl	-5471
▁Confirm	-5472
avascript	-5473
▁Engagement	-5474
**	-5475
7.	-5476
ek	-5477
gen	-5478
iny	-5479
ador	-5480
name	-5481
▁Tub	-5482
Space	-5483
attle	-5484
onder	-5485
▁Prec	-5486
▁Roll	-5487
acters	-5488
▁Outlook	-5489
▁programs	-5490
▁yourself	-5491
▁Electronic	-5492
▁(7	-5493
▁0.	-5494
▁Pac	-5495
▁Plans	-5496
▁built	-5497
▁recent	-5498
Commerce	-5499
▁Housing	-5500
MC	-5501
bre	-5502
isa	-5503
una	-5504
▁+1	-5505
amed	-5506
▁Hyd	-5507
▁Lou	-5508
▁cut	-5509
▁rad	-5510
▁Also	-5511
▁Bird	-5512
▁draw	-5513
▁Think	-5514
urrency	-5515
PA	-5516
▁Р	-5517
-11	-5518
flu	-5519
▁PS	-5520
edom	-5521
onom	-5522
▁Cit	-5523
orials	-5524
▁exhib	-5525
▁indic	-5526
English	-5527
reprene	-5528
▁Animal	-5529
▁Lights	-5530
▁recogn	-5531
▁screen	-5532
▁running	-5533
▁Applications	-5534
▁?	-5535
ira	-5536
och	-5537
▁RS	-5538
▁TE	-5539
▁gl	-5540
enda	-5541
iser	-5542
▁Jud	-5543
▁Sar	-5544
▁Thom	-5545
▁While	-5546
▁audio	-5547
actions	-5548
igation	-5549
▁calcul	-5550
▁Interviews	-5551
▁Newsletters	-5552
ami	-5553
aked	-5554
esis	-5555
flow	-5556
▁29,	-5557
ither	-5558
antasy	-5559
▁young	-5560
▁Medium	-5561
▁affect	-5562
▁Hosting	-5563
▁Working	-5564
▁certain	-5565
▁getting	-5566
▁Meetings	-5567
▁Singapore	-5568
BC	-5569
▁44	-5570
▁MD	-5571
▁Pok	-5572
/2025	-5573
▁2000	-5574
▁Mock	-5575
▁2026,	-5576
▁Wheel	-5577
▁daily	-5578
▁posit	-5579
▁words	-5580
▁owners	-5581
▁section	-5582
▁variety	-5583
▁Advisory	-5584
▁individual	-5585
▁NO	-5586
rome	-5587
▁Fan	-5588
▁Kel	-5589
▁Was	-5590
entic	-5591
▁Kits	-5592
▁Load	-5593
onymous	-5594
▁Server	-5595
▁friend	-5596
▁Reposit	-5597
▁activity	-5598
▁everyone	-5599
▁official	-5600
▁Português	-5601
▁throughout	-5602
▁applications	-5603
ds	-5604
ONE	-5605
eph	-5606
▁CN	-5607
▁eff	-5608
atives	-5609
▁Royal	-5610
▁early	-5611
▁shows	-5612
▁Dating	-5613
ientific	-5614
▁leading	-5615
necessary	-5616
aka	-5617
lar	-5618
▁}}	-5619
hand	-5620
iers	-5621
embly	-5622
▁Snow	-5623
▁Wind	-5624
▁Veter	-5625
chester	-5626
▁Object	-5627
▁culture	-5628
▁commercial	-5629
Tok	-5630
loc	-5631
acle	-5632
▁Bah	-5633
▁CAR	-5634
▁Wik	-5635
▁got	-5636
▁once	-5637
▁qual	-5638
▁fresh	-5639
essment	-5640
▁econom	-5641
▁Channel	-5642
▁machine	-5643
▁strength	-5644
▁Knowledge	-5645
▁character	-5646
▁Australian	-5647
MM	-5648
war	-5649
▁AW	-5650
hern	-5651
hire	-5652
▁30,	-5653
▁Face	-5654
▁Dubai	-5655
▁smart	-5656
▁Switch	-5657
▁Morning	-5658
▁sustain	-5659
abilities	-5660
▁contract	-5661
▁requirements	-5662
4.	-5663
▁NC	-5664
ryst	-5665
▁tra	-5666
▁Should	-5667
ublishing	-5668
▁Galleries	-5669
▁Production	-5670
ERE	-5671
car	-5672
vas	-5673
uild	-5674
▁Sus	-5675
▁ads	-5676
ifier	-5677
wards	-5678
▁7:00	-5679
▁club	-5680
▁lead	-5681
▁ways	-5682
quires	-5683
▁Trump	-5684
▁white	-5685
▁Fabric	-5686
▁Episode	-5687
▁express	-5688
▁Virginia	-5689
▁insurance	-5690
▁Preferences	-5691
▁registration	-5692
</	-5693
xy	-5694
ANG	-5695
▁Ec	-5696
▁Cer	-5697
▁Rub	-5698
▁ser	-5699
iking	-5700
▁Beer	-5701
▁Toys	-5702
▁plans	-5703
▁relev	-5704
▁Golden	-5705
▁career	-5706
▁deposit	-5707
▁general	-5708
▁Birthday	-5709
▁Solution	-5710
INT	-5711
ela	-5712
▁(2	-5713
▁JP	-5714
▁23,	-5715
▁26,	-5716
▁Pil	-5717
▁clean	-5718
entures	-5719
▁Summary	-5720
▁PRODUCTS	-5721
▁Specials	-5722
pa	-5723
▁37	-5724
azing	-5725
▁GDPR	-5726
▁Rece	-5727
▁Vari	-5728
▁land	-5729
Subject	-5730
▁Includ	-5731
▁casinos	-5732
▁Indonesia	-5733
▁potential	-5734
▁Tu	-5735
alia	-5736
town	-5737
▁REC	-5738
estic	-5739
ograp	-5740
▁attr	-5741
▁takes	-5742
▁Comput	-5743
▁Police	-5744
▁Skills	-5745
▁Visual	-5746
▁Yellow	-5747
▁Abstract	-5748
▁received	-5749
▁solution	-5750
▁Frequently	-5751
▁Industries	-5752
▁professionals	-5753
PH	-5754
iy	-5755
▁FE	-5756
imit	-5757
rael	-5758
▁Bit	-5759
ipped	-5760
▁done	-5761
▁rate	-5762
▁COVID	-5763
▁later	-5764
▁Flower	-5765
▁Supply	-5766
▁collabor	-5767
▁Favorites	-5768
/7	-5769
▁Ak	-5770
brid	-5771
itar	-5772
ussy	-5773
▁hon	-5774
▁tim	-5775
icals	-5776
▁Hood	-5777
▁park	-5778
▁Offer	-5779
▁Spain	-5780
▁Buying	-5781
▁Testing	-5782
▁release	-5783
▁Collabor	-5784
▁Warranty	-5785
▁Announcements	-5786
BR	-5787
LA	-5788
RP	-5789
augh	-5790
coin	-5791
▁sil	-5792
▁sugg	-5793
▁word	-5794
▁Bridge	-5795
▁regular	-5796
▁insights	-5797
ho	-5798
ski	-5799
▁RO	-5800
▁dest	-5801
▁Advoc	-5802
▁repair	-5803
▁sports	-5804
▁Opening	-5805
▁Selling	-5806
▁signific	-5807
Tw	-5808
axy	-5809
oks	-5810
oop	-5811
▁max	-5812
▁tal	-5813
▁plant	-5814
▁stars	-5815
▁Cancer	-5816
▁Square	-5817
▁forward	-5818
▁Italiano	-5819
▁Directors	-5820
▁Electronics	-5821
da	-5822
jo	-5823
ETS	-5824
ICS	-5825
ded	-5826
▁Ry	-5827
star	-5828
▁27,	-5829
▁taken	-5830
▁Leather	-5831
▁Vietnam	-5832
BS	-5833
▁←	-5834
-18	-5835
aws	-5836
new	-5837
sec	-5838
▁CC	-5839
INGS	-5840
▁Bol	-5841
▁Dut	-5842
▁Each	-5843
redits	-5844
▁Volume	-5845
▁offering	-5846
▁automatic	-5847
top	-5848
▁Beh	-5849
▁Bey	-5850
▁fix	-5851
ormal	-5852
▁Perm	-5853
▁Pers	-5854
▁Scot	-5855
ATIONS	-5856
▁Scott	-5857
▁Using	-5858
▁happen	-5859
▁Patient	-5860
▁Manufacturing	-5861
▁क	-5862
ACE	-5863
AIL	-5864
gov	-5865
ima	-5866
occ	-5867
▁AG	-5868
more	-5869
▁MAT	-5870
▁Demo	-5871
▁Swed	-5872
▁WITH	-5873
▁copy	-5874
▁Smith	-5875
▁extra	-5876
▁Delete	-5877
▁advertising	-5878
▁experiences	-5879
▁organization	-5880
83	-5881
TE	-5882
ih	-5883
-25	-5884
▁99	-5885
▁JO	-5886
most	-5887
▁sym	-5888
▁won	-5889
▁Cash	-5890
▁chat	-5891
▁firm	-5892
▁guid	-5893
▁wall	-5894
▁speak	-5895
▁groups	-5896
▁Vehicle	-5897
▁welcome	-5898
▁whether	-5899
▁Developers	-5900
afe	-5901
▁OP	-5902
ipes	-5903
▁Bet	-5904
endor	-5905
▁Teen	-5906
▁Enjoy	-5907
▁Teams	-5908
▁Topic	-5909
▁final	-5910
▁stream	-5911
▁Journey	-5912
▁Holidays	-5913
▁calendar	-5914
▁Facilities	-5915
▁continuing	-5916
Bl	-5917
NA	-5918
wan	-5919
▁IL	-5920
gent	-5921
▁Amb	-5922
▁Fle	-5923
▁Sew	-5924
50.00	-5925
iency	-5926
▁Lapt	-5927
▁Lect	-5928
▁Point	-5929
▁Prints	-5930
▁Sample	-5931
▁Packages	-5932
▁Restaurants	-5933
▁construction	-5934
ald	-5935
▁Py	-5936
iders	-5937
known	-5938
▁held	-5939
▁walk	-5940
▁Transfer	-5941
▁creating	-5942
▁investment	-5943
VI	-5944
ji	-5945
po	-5946
ASE	-5947
▁10:	-5948
▁Bab	-5949
▁FIN	-5950
▁Imm	-5951
▁Luc	-5952
▁Rod	-5953
▁bad	-5954
razil	-5955
▁pers	-5956
▁records	-5957
81	-5958
-16	-5959
ione	-5960
-2025	-5961
▁Insp	-5962
▁cook	-5963
▁POLIC	-5964
▁Tweet	-5965
▁package	-5966
▁Regional	-5967
▁protection	-5968
Gr	-5969
MI	-5970
▁↗	-5971
ECK	-5972
OOD	-5973
▁(9	-5974
▁Bib	-5975
▁DES	-5976
▁Rot	-5977
Share	-5978
ought	-5979
▁crit	-5980
attery	-5981
▁Dance	-5982
▁Luxury	-5983
▁Prepar	-5984
▁longer	-5985
▁Angeles	-5986
▁Capital	-5987
▁average	-5988
▁standard	-5989
▁Discussion	-5990
▁responsible	-5991
FL	-5992
▁~	-5993
oub	-5994
uke	-5995
▁EL	-5996
▁日本	-5997
▁REG	-5998
▁Upv	-5999
▁SIGN	-6000
▁Laser	-6001
▁Rings	-6002
▁front	-6003
▁least	-6004
entials	-6005
▁Always	-6006
▁entire	-6007
▁except	-6008
igration	-6009
▁Jackson	-6010
▁Adventure	-6011
▁Wholesale	-6012
NS	-6013
asm	-6014
▁Bh	-6015
▁MED	-6016
osoph	-6017
ugins	-6018
▁skin	-6019
▁sort	-6020
▁wear	-6021
▁among	-6022
▁super	-6023
▁Alumin	-6024
▁Plants	-6025
▁TikTok	-6026
uthentic	-6027
▁Arrivals	-6028
▁Purchase	-6029
▁distribut	-6030
▁Communities	-6031
,”	-6032
▁!	-6033
ept	-6034
iec	-6035
▁mor	-6036
▁DMCA	-6037
▁hair	-6038
▁Others	-6039
▁common	-6040
ographer	-6041
▁identify	-6042
▁username	-6043
QL	-6044
ISH	-6045
OLD	-6046
asa	-6047
col	-6048
ige	-6049
▁42	-6050
▁(9)	-6051
▁Misc	-6052
▁paint	-6053
▁choice	-6054
▁Deposit	-6055
▁Catering	-6056
▁Administration	-6057
">	-6058
▁>>	-6059
▁NE	-6060
duce	-6061
onda	-6062
yles	-6063
▁Dam	-6064
▁SALE	-6065
▁mass	-6066
▁Neder	-6067
product	-6068
version	-6069
▁Issued	-6070
▁Tables	-6071
▁format	-6072
▁Parking	-6073
▁transfer	-6074
▁Financing	-6075
▁Technologies	-6076
/5	-6077
ME	-6078
ba	-6079
OCK	-6080
▁IR	-6081
▁2.0	-6082
▁Eye	-6083
▁Sel	-6084
▁Force	-6085
ificial	-6086
▁Effect	-6087
▁closed	-6088
▁models	-6089
▁needed	-6090
▁explore	-6091
▁million	-6092
▁statement	-6093
ECH	-6094
LES	-6095
RIB	-6096
aver	-6097
info	-6098
oost	-6099
year	-6100
▁Les	-6101
▁Ped	-6102
ayout	-6103
▁Must	-6104
▁Names	-6105
▁Voice	-6106
▁claim	-6107
▁coming	-6108
▁limited	-6109
▁tickets	-6110
ii	-6111
ус	-6112
Ind	-6113
▁中文	-6114
▁gen	-6115
▁Answ	-6116
▁Liter	-6117
▁Sweat	-6118
▁teams	-6119
▁Secret	-6120
▁allows	-6121
▁moment	-6122
▁Average	-6123
▁Russian	-6124
▁Ultimate	-6125
▁planning	-6126
hr	-6127
ui	-6128
CES	-6129
uly	-6130
▁800	-6131
▁Tok	-6132
▁Van	-6133
otive	-6134
▁Anti	-6135
▁Fore	-6136
▁Wear	-6137
rictly	-6138
▁Grant	-6139
ellence	-6140
▁George	-6141
▁center	-6142
▁Feature	-6143
▁Instrum	-6144
▁Upvoted	-6145
▁deliver	-6146
▁addition	-6147
▁transport	-6148
iors	-6149
mond	-6150
▁Tea	-6151
▁UTC	-6152
itude	-6153
▁Risk	-6154
▁wish	-6155
ertain	-6156
imedia	-6157
content	-6158
▁Shorts	-6159
▁selected	-6160
ban	-6161
▁PE	-6162
▁PT	-6163
anga	-6164
▁Arm	-6165
class	-6166
oster	-6167
ouses	-6168
▁Meta	-6169
▁Bikes	-6170
▁Letter	-6171
▁Survey	-6172
▁period	-6173
▁practice	-6174
▁Governance	-6175
ocr	-6176
▁Az	-6177
arch	-6178
eler	-6179
ский	-6180
▁ult	-6181
reens	-6182
▁Lock	-6183
▁dist	-6184
▁Treat	-6185
▁Forest	-6186
▁shared	-6187
▁believe	-6188
▁methods	-6189
4,	-6190
osc	-6191
▁#1	-6192
band	-6193
wise	-6194
▁Has	-6195
▁Swim	-6196
entory	-6197
▁Locks	-6198
▁Magic	-6199
▁Since	-6200
▁doesn	-6201
▁inbox	-6202
▁Beyond	-6203
▁Detail	-6204
▁Assistant	-6205
▁Basketball	-6206
wh	-6207
▁NJ	-6208
izer	-6209
▁ill	-6210
▁Safe	-6211
Author	-6212
▁Chain	-6213
▁Button	-6214
▁Galaxy	-6215
▁Israel	-6216
▁Models	-6217
▁Writing	-6218
▁reflect	-6219
▁Exhibitions	-6220
VD	-6221
ns	-6222
▁]	-6223
rete	-6224
vest	-6225
▁101	-6226
▁Ast	-6227
▁Die	-6228
▁INR	-6229
▁Tow	-6230
▁Toy	-6231
▁iOS	-6232
ordin	-6233
▁PRIV	-6234
▁Turn	-6235
aneous	-6236
▁Agent	-6237
▁Agric	-6238
▁Speed	-6239
▁ideas	-6240
▁EVENTS	-6241
▁Marine	-6242
▁Apparel	-6243
▁wedding	-6244
▁writing	-6245
▁Interior	-6246
▁relevant	-6247
()	-6248
::	-6249
By	-6250
IAN	-6251
pdf	-6252
ste	-6253
win	-6254
▁47	-6255
Free	-6256
osen	-6257
▁LOG	-6258
▁TRA	-6259
▁bit	-6260
ansas	-6261
rease	-6262
▁gold	-6263
▁risk	-6264
▁Labor	-6265
▁Picks	-6266
▁announc	-6267
▁Restaurant	-6268
▁functionalities	-6269
XL	-6270
bi	-6271
owa	-6272
▁$10	-6273
▁150	-6274
▁Spa	-6275
cknow	-6276
right	-6277
▁Aust	-6278
▁Mort	-6279
▁clos	-6280
▁Asked	-6281
▁Gloss	-6282
▁Santa	-6283
▁Doctor	-6284
▁associ	-6285
▁listed	-6286
▁upload	-6287
▁Similar	-6288
▁Northern	-6289
▁discover	-6290
▁Nutrition	-6291
▁communication	-6292
".	-6293
DA	-6294
-09	-6295
pat	-6296
uis	-6297
▁$3	-6298
ried	-6299
▁(30	-6300
aysia	-6301
orney	-6302
▁Comb	-6303
▁Kent	-6304
ynamic	-6305
▁round	-6306
▁topic	-6307
▁Clinic	-6308
▁region	-6309
▁Airport	-6310
▁Chapter	-6311
▁passion	-6312
ternative	-6313
▁Framework	-6314
56	-6315
acc	-6316
enz	-6317
ref	-6318
▁Jo	-6319
2025	-6320
icip	-6321
vens	-6322
▁360	-6323
▁Thu	-6324
▁fill	-6325
▁kind	-6326
itment	-6327
▁Hindi	-6328
▁Prices	-6329
▁reports	-6330
▁creative	-6331
▁Transportation	-6332
:15	-6333
All	-6334
awa	-6335
▁NA	-6336
▁Om	-6337
entai	-6338
▁Cabin	-6339
▁Racing	-6340
▁families	-6341
▁challenges	-6342
▁significant	-6343
\/	-6344
ACY	-6345
ARY	-6346
▁fa	-6347
cing	-6348
▁pet	-6349
ution	-6350
▁amet	-6351
amsung	-6352
усский	-6353
▁Built	-6354
▁Flash	-6355
▁Peter	-6356
▁charge	-6357
▁manage	-6358
▁Military	-6359
▁experienc	-6360
▁interested	-6361
rie	-6362
▁CT	-6363
▁Aer	-6364
▁EUR	-6365
acity	-6366
ateur	-6367
party	-6368
▁logo	-6369
▁Types	-6370
▁const	-6371
▁refer	-6372
▁Carolina	-6373
VC	-6374
(1)	-6375
▁49	-6376
ably	-6377
▁oil	-6378
/2026	-6379
Email	-6380
ached	-6381
eball	-6382
ockey	-6383
▁12:00	-6384
▁Based	-6385
▁Hills	-6386
▁Panel	-6387
▁Venue	-6388
▁graph	-6389
▁artist	-6390
▁conven	-6391
commerce	-6392
▁Graphic	-6393
▁license	-6394
▁treatment	-6395
▁Organization	-6396
UK	-6397
LET	-6398
ipl	-6399
omi	-6400
link	-6401
umps	-6402
▁Aqu	-6403
▁Dun	-6404
▁sal	-6405
▁Boys	-6406
▁Hide	-6407
▁READ	-6408
bridge	-6409
▁Early	-6410
▁Neckl	-6411
▁Ocean	-6412
▁Recre	-6413
▁Values	-6414
redients	-6415
▁enabled	-6416
▁enhance	-6417
▁Division	-6418
▁reliable	-6419
Or	-6420
Qu	-6421
bur	-6422
▁GA	-6423
▁0.0	-6424
▁Dig	-6425
▁MIN	-6426
99.00	-6427
▁Poly	-6428
iverse	-6429
search	-6430
▁doing	-6431
etworks	-6432
▁Adults	-6433
▁Athlet	-6434
▁Session	-6435
▁contents	-6436
▁countries	-6437
▁instagram	-6438
En	-6439
HA	-6440
II	-6441
PE	-6442
ORM	-6443
PING	-6444
▁Hou	-6445
▁Ton	-6446
▁Tue	-6447
stone	-6448
▁(10)	-6449
▁1000	-6450
▁Brazil	-6451
▁Stream	-6452
▁Removal	-6453
▁Teacher	-6454
▁journal	-6455
▁meeting	-6456
▁sharing	-6457
▁Architecture	-6458
59	-6459
=”	-6460
BL	-6461
PC	-6462
uv	-6463
▁%	-6464
pts	-6465
▁BC	-6466
▁mm	-6467
bury	-6468
▁Bus	-6469
▁DIY	-6470
▁sem	-6471
reach	-6472
▁Brid	-6473
▁flex	-6474
iscons	-6475
shirts	-6476
▁estab	-6477
▁Clients	-6478
▁Fantasy	-6479
▁Forgotten	-6480
▁analytics	-6481
.10	-6482
800	-6483
yes	-6484
▁SA	-6485
▁cy	-6486
▁ADV	-6487
▁Hen	-6488
aters	-6489
▁Drop	-6490
▁LIVE	-6491
▁Visa	-6492
▁sold	-6493
▁Cable	-6494
▁names	-6495
ordable	-6496
▁remove	-6497
isconsin	-6498
▁student	-6499
▁Keywords	-6500
▁Tracking	-6501
▁Important	-6502
osa	-6503
uan	-6504
▁41	-6505
▁MY	-6506
gest	-6507
uits	-6508
▁ips	-6509
enses	-6510
ether	-6511
odies	-6512
▁Belg	-6513
▁earn	-6514
ailand	-6515
▁Claim	-6516
▁cases	-6517
▁spons	-6518
▁Footer	-6519
▁Ground	-6520
▁Ticket	-6521
▁called	-6522
▁nature	-6523
▁Georgia	-6524
▁Respons	-6525
▁Teaching	-6526
▁clicking	-6527
▁supported	-6528
▁Communications	-6529
▁Infrastructure	-6530
▁(+	-6531
▁OS	-6532
▁VA	-6533
▁$15	-6534
▁APP	-6535
▁Blu	-6536
▁Gay	-6537
▁Haw	-6538
▁dam	-6539
▁Brew	-6540
▁Section	-6541
▁Underst	-6542
▁Dashboard	-6543
▁Functional	-6544
▁Nederlands	-6545
ра	-6546
▁52	-6547
▁da	-6548
▁Mas	-6549
▁Pen	-6550
▁fab	-6551
▁6:00	-6552
▁Prev	-6553
▁Tops	-6554
▁Ways	-6555
▁cool	-6556
▁rent	-6557
▁Final	-6558
▁Stick	-6559
▁Cities	-6560
▁Designs	-6561
▁courses	-6562
▁Weddings	-6563
▁friendly	-6564
▁government	-6565
ão	-6566
Cal	-6567
DER	-6568
iar	-6569
ocs	-6570
core	-6571
eeds	-6572
▁bag	-6573
achel	-6574
craft	-6575
iform	-6576
▁Alph	-6577
▁Rail	-6578
▁Rout	-6579
▁Scan	-6580
▁true	-6581
enders	-6582
▁Bible	-6583
▁cards	-6584
▁Ukrain	-6585
▁Players	-6586
▁Heritage	-6587
▁national	-6588
▁properly	-6589
▁strategy	-6590
▁Breakfast	-6591
▁expertise	-6592
▁properties	-6593
To	-6594
fa	-6595
-00	-6596
ENS	-6597
▁2:	-6598
ANCE	-6599
etch	-6600
▁Por	-6601
▁lev	-6602
works	-6603
▁PART	-6604
▁Path	-6605
▁Crime	-6606
▁given	-6607
quality	-6608
▁Mother	-6609
▁Origin	-6610
▁someone	-6611
▁Pictures	-6612
▁Southern	-6613
▁Template	-6614
-15	-6615
aha	-6616
aki	-6617
sey	-6618
▁46	-6619
ARCH	-6620
▁365	-6621
▁Alt	-6622
atisf	-6623
▁Grid	-6624
▁seek	-6625
ighbor	-6626
▁rates	-6627
▁POLICY	-6628
▁taking	-6629
Contains	-6630
▁Vintage	-6631
▁Interview	-6632
▁subscribe	-6633
▁Exhibition	-6634
zy	-6635
ila	-6636
oms	-6637
▁LT	-6638
▁oz	-6639
▁Sky	-6640
Terms	-6641
books	-6642
▁Bars	-6643
▁Flex	-6644
▁exam	-6645
▁Saint	-6646
▁Sleep	-6647
▁Carpet	-6648
original	-6649
▁Flowers	-6650
▁Rewards	-6651
MT	-6652
hew	-6653
▁DC	-6654
▁NS	-6655
gets	-6656
▁EST	-6657
ennis	-6658
force	-6659
liers	-6660
usion	-6661
▁2002	-6662
▁Nurs	-6663
▁kids	-6664
▁mean	-6665
▁rout	-6666
▁Ballo	-6667
▁carry	-6668
▁ACCESS	-6669
▁import	-6670
▁Justice	-6671
▁outside	-6672
▁anything	-6673
▁involved	-6674
▁resource	-6675
▁documents	-6676
▁}	-6677
akt	-6678
▁GU	-6679
▁sn	-6680
itan	-6681
odel	-6682
reme	-6683
▁Git	-6684
▁ren	-6685
▁sle	-6686
▁Dent	-6687
▁Ford	-6688
▁Lift	-6689
▁Liqu	-6690
▁face	-6691
▁Robot	-6692
▁fully	-6693
▁thing	-6694
▁Column	-6695
▁Player	-6696
▁inside	-6697
▁Booking	-6698
▁Climate	-6699
▁Federal	-6700
▁analyze	-6701
▁complex	-6702
▁example	-6703
▁Administr	-6704
▁Certified	-6705
▁Publisher	-6706
▁maintenance	-6707
lr	-6708
ULT	-6709
lad	-6710
oli	-6711
▁Et	-6712
▁GL	-6713
ugal	-6714
west	-6715
▁Cum	-6716
▁Lee	-6717
▁Mob	-6718
▁far	-6719
atics	-6720
▁five	-6721
▁init	-6722
nesota	-6723
▁dolor	-6724
▁player	-6725
▁contain	-6726
▁Webinars	-6727
▁Templates	-6728
▁Background	-6729
▁Certificate	-6730
4-	-6731
ugar	-6732
▁CMS	-6733
▁PAR	-6734
▁Tro	-6735
▁emb	-6736
aping	-6737
eless	-6738
▁Five	-6739
▁MENU	-6740
▁Sugg	-6741
icious	-6742
▁Extra	-6743
▁Icons	-6744
▁Advice	-6745
▁Columb	-6746
▁Secure	-6747
▁Stores	-6748
▁Theatre	-6749
▁playing	-6750
▁Provider	-6751
▁Catalogue	-6752
▁Developer	-6753
▁Repository	-6754
▁popularity	-6755
▁Departments	-6756
▁Intelligence	-6757
TP	-6758
mb	-6759
▁م	-6760
olk	-6761
zen	-6762
▁Rs	-6763
ktop	-6764
news	-6765
▁Bot	-6766
▁Rug	-6767
eller	-6768
hedul	-6769
▁Fuel	-6770
▁Hope	-6771
▁plus	-6772
▁spam	-6773
▁Louis	-6774
▁treat	-6775
areness	-6776
▁Junior	-6777
▁Portra	-6778
▁chosen	-6779
▁values	-6780
▁Jackets	-6781
▁Surgery	-6782
▁describ	-6783
▁helping	-6784
▁Generator	-6785
▁developed	-6786
imp	-6787
▁MO	-6788
onia	-6789
post	-6790
▁250	-6791
▁PRE	-6792
▁Zip	-6793
adian	-6794
▁cand	-6795
▁coup	-6796
▁says	-6797
▁tail	-6798
▁upon	-6799
atible	-6800
▁Cream	-6801
▁Irish	-6802
▁Sheet	-6803
ariants	-6804
stagram	-6805
▁Friend	-6806
▁Fundra	-6807
▁Signup	-6808
▁instit	-6809
▁Houston	-6810
▁assistance	-6811
▁Communication	-6812
cry	-6813
▁CV	-6814
▁Kh	-6815
apid	-6816
lied	-6817
▁400	-6818
▁thr	-6819
▁Moon	-6820
▁Ring	-6821
▁spir	-6822
oosing	-6823
▁seems	-6824
▁Cooper	-6825
▁Legisl	-6826
▁answer	-6827
▁compar	-6828
▁supply	-6829
▁Element	-6830
▁Particip	-6831
▁Exclusive	-6832
NL	-6833
:45	-6834
ALS	-6835
Pal	-6836
alu	-6837
ENCE	-6838
iami	-6839
iano	-6840
rier	-6841
▁31,	-6842
▁CAT	-6843
▁Ell	-6844
▁Ray	-6845
▁SCH	-6846
yrics	-6847
▁goal	-6848
ercise	-6849
▁craft	-6850
▁client	-6851
▁highly	-6852
▁propos	-6853
▁computer	-6854
▁licensed	-6855
▁workshop	-6856
▁installation	-6857
Exp	-6858
▁4.	-6859
▁Li	-6860
abad	-6861
zech	-6862
▁Fox	-6863
EMENT	-6864
being	-6865
bserv	-6866
ieces	-6867
▁Pors	-6868
▁Serm	-6869
▁Zoom	-6870
▁diff	-6871
▁green	-6872
▁mount	-6873
▁whole	-6874
▁Andrew	-6875
iversary	-6876
▁Contest	-6877
▁primary	-6878
▁Profiles	-6879
▁EqualsNot	-6880
▁Wisconsin	-6881
▁Javascript	-6882
▁EqualsContains	-6883
71	-6884
][	-6885
je	-6886
▁â	-6887
Lab	-6888
code	-6889
draw	-6890
izza	-6891
vron	-6892
▁COL	-6893
▁Sau	-6894
▁Tar	-6895
▁imm	-6896
ption	-6897
▁COMM	-6898
▁Four	-6899
▁Pump	-6900
▁podc	-6901
asting	-6902
▁Traff	-6903
▁arrow	-6904
▁dream	-6905
▁Newest	-6906
▁Summit	-6907
▁Unlock	-6908
▁summer	-6909
▁target	-6910
▁Conduct	-6911
▁Preview	-6912
▁Attribut	-6913
▁Assistance	-6914
▁Recruitment	-6915
▁traditional	-6916
gu	-6917
ية	-6918
Des	-6919
kit	-6920
▁BM	-6921
▁Ha	-6922
cure	-6923
wall	-6924
▁1.0	-6925
▁Ach	-6926
▁bud	-6927
worth	-6928
▁Grey	-6929
▁Orth	-6930
▁Rain	-6931
▁VIDE	-6932
▁blue	-6933
criber	-6934
ivation	-6935
▁Martin	-6936
▁linked	-6937
▁Funding	-6938
▁PRODUCT	-6939
▁Pacific	-6940
▁Plastic	-6941
▁conduct	-6942
▁Assembly	-6943
▁advanced	-6944
▁Electrical	-6945
▁Enterprise	-6946
▁independent	-6947
bum	-6948
hen	-6949
▁id	-6950
iner	-6951
irus	-6952
▁110	-6953
▁Hat	-6954
▁Sed	-6955
▁XXX	-6956
itzer	-6957
ounce	-6958
ports	-6959
water	-6960
▁Many	-6961
argest	-6962
ervice	-6963
▁Civil	-6964
▁award	-6965
▁benef	-6966
▁birth	-6967
▁Corner	-6968
▁behind	-6969
▁server	-6970
▁weight	-6971
▁Entries	-6972
▁PRIVACY	-6973
▁Parents	-6974
▁Affiliate	-6975
▁Landscape	-6976
UC	-6977
ικ	-6978
عر	-6979
Reg	-6980
bal	-6981
lay	-6982
▁Od	-6983
9.00	-6984
ABLE	-6985
▁Aid	-6986
▁Jam	-6987
▁VIP	-6988
▁dry	-6989
▁日本語	-6990
itors	-6991
urers	-6992
▁Dead	-6993
▁Male	-6994
▁paid	-6995
▁prec	-6996
▁road	-6997
▁stop	-6998
papers	-6999
▁Basic	-7000
▁Sweet	-7001
▁Three	-7002
▁DSpace	-7003
▁Growth	-7004
▁Papers	-7005
▁Recipe	-7006
▁Shirts	-7007
▁Chicken	-7008
▁Numbers	-7009
▁Samsung	-7010
▁holiday	-7011
▁Malaysia	-7012
▁Automation	-7013
▁submitting	-7014
▁instructions	-7015
GS	-7016
We	-7017
▁▼	-7018
uma	-7019
▁WA	-7020
▁Bid	-7021
▁rob	-7022
ación	-7023
night	-7024
▁INFO	-7025
▁Tumb	-7026
▁hope	-7027
▁hour	-7028
▁path	-7029
▁roll	-7030
▁seen	-7031
▁polit	-7032
▁Thomas	-7033
▁higher	-7034
▁Experts	-7035
▁sidebar	-7036
▁traffic	-7037
▁Question	-7038
▁Packaging	-7039
▁Strategic	-7040
▁Recommended	-7041
▁Scholarships	-7042
EMB	-7043
tty	-7044
▁$4	-7045
▁IC	-7046
2026	-7047
Tech	-7048
aska	-7049
cles	-7050
gers	-7051
▁bet	-7052
Opens	-7053
avior	-7054
cycle	-7055
elect	-7056
ordan	-7057
▁Mind	-7058
▁bath	-7059
▁fees	-7060
▁Brows	-7061
▁Chair	-7062
▁costs	-7063
▁lives	-7064
▁owner	-7065
▁Cotton	-7066
▁Random	-7067
▁simply	-7068
▁devices	-7069
▁Clinical	-7070
▁Pakistan	-7071
repreneurs	-7072
▁according	-7073
▁standards	-7074
▁compliance	-7075
▁Partnerships	-7076
DC	-7077
▁★	-7078
-06	-7079
uba	-7080
road	-7081
▁$25	-7082
▁DIS	-7083
▁Did	-7084
▁Gun	-7085
▁Thr	-7086
▁Mike	-7087
▁anim	-7088
osophy	-7089
selves	-7090
▁Entry	-7091
▁drive	-7092
▁entry	-7093
▁Garage	-7094
▁Mental	-7095
▁Places	-7096
▁either	-7097
▁Advocacy	-7098
▁gambling	-7099
▁upcoming	-7100
▁Manufacturer	-7101
UP	-7102
va	-7103
▁$6	-7104
atar	-7105
▁Boy	-7106
▁Lov	-7107
▁Own	-7108
marks	-7109
▁Hunt	-7110
▁door	-7111
▁lock	-7112
▁pool	-7113
▁Chris	-7114
▁Label	-7115
▁Paris	-7116
▁serve	-7117
istical	-7118
riculum	-7119
▁Russia	-7120
▁Valent	-7121
▁reduce	-7122
▁submit	-7123
▁Markets	-7124
▁absolut	-7125
▁ensures	-7126
▁experts	-7127
▁Earrings	-7128
▁recently	-7129
▁subscrib	-7130
▁delivered	-7131
iw	-7132
iro	-7133
kin	-7134
IDNot	-7135
▁BOOK	-7136
▁Bott	-7137
▁Gard	-7138
▁Jeff	-7139
▁Wrap	-7140
▁Delhi	-7141
▁Error	-7142
▁Length	-7143
▁Orange	-7144
▁Montana	-7145
▁Porsche	-7146
▁Michigan	-7147
▁position	-7148
▁characters	-7149
▁ContainsNot	-7150
-23	-7151
IME	-7152
▁Ox	-7153
▁SO	-7154
▁VR	-7155
▁Dif	-7156
▁Tan	-7157
rance	-7158
ships	-7159
▁(11)	-7160
▁Cold	-7161
▁Extr	-7162
▁Fine	-7163
▁Once	-7164
▁Pear	-7165
▁Rugs	-7166
▁matt	-7167
antage	-7168
cripts	-7169
filter	-7170
isodes	-7171
▁Blues	-7172
▁Brace	-7173
▁goals	-7174
▁looks	-7175
▁Common	-7176
▁Alliance	-7177
▁Recently	-7178
▁transform	-7179
▁Conferences	-7180
01	-7181
▁ह	-7182
web	-7183
▁Ba	-7184
▁SL	-7185
RIBE	-7186
View	-7187
adow	-7188
enna	-7189
rupt	-7190
umes	-7191
wich	-7192
▁12:	-7193
▁Loan	-7194
amless	-7195
priate	-7196
▁Cyber	-7197
▁Renew	-7198
▁deals	-7199
ecially	-7200
▁Butter	-7201
▁enough	-7202
▁Disclos	-7203
▁Opinion	-7204
▁Spirits	-7205
▁restaur	-7206
▁weather	-7207
▁Bathroom	-7208
▁Colorado	-7209
▁progress	-7210
▁background	-7211
▁Marketplace	-7212
▁Temperature	-7213
Fi	-7214
AVE	-7215
Log	-7216
ova	-7217
▁120	-7218
▁TER	-7219
OLLOW	-7220
▁Shel	-7221
includ	-7222
▁ipsum	-7223
▁Manual	-7224
▁Prayer	-7225
▁beauty	-7226
▁determ	-7227
▁encour	-7228
▁prepar	-7229
ellation	-7230
ographic	-7231
▁Premier	-7232
▁quickly	-7233
▁campaign	-7234
▁database	-7235
▁architect	-7236
▁guarantee	-7237
▁requested	-7238
SubjectDate	-7239
▁appointment	-7240
52	-7241
DE	-7242
sl	-7243
Add	-7244
IRE	-7245
iri	-7246
ito	-7247
onn	-7248
▁MM	-7249
▁na	-7250
king	-7251
▁Pul	-7252
▁Tay	-7253
▁les	-7254
▁Cond	-7255
▁Fill	-7256
▁Very	-7257
porate	-7258
▁Album	-7259
▁Broch	-7260
▁Kenya	-7261
▁frequ	-7262
▁quote	-7263
urround	-7264
▁Making	-7265
▁satisf	-7266
▁African	-7267
▁Factory	-7268
▁Warning	-7269
▁Without	-7270
▁Bookmark	-7271
▁Vehicles	-7272
▁communities	-7273
▁individuals	-7274
ка	-7275
-08	-7276
Fri	-7277
aza	-7278
nel	-7279
▁66	-7280
▁SD	-7281
lott	-7282
▁Eas	-7283
▁Kim	-7284
▁bus	-7285
inity	-7286
▁Qual	-7287
▁sets	-7288
SCRIBE	-7289
▁Pants	-7290
▁Rates	-7291
▁anyone	-7292
▁Auction	-7293
▁Require	-7294
▁Trading	-7295
▁Accounts	-7296
▁Thailand	-7297
▁requires	-7298
▁Minnesota	-7299
▁regarding	-7300
▁Admissions	-7301
▁successfully	-7302
FR	-7303
ga	-7304
▁u	-7305
/01	-7306
iva	-7307
mos	-7308
yer	-7309
▁HP	-7310
date	-7311
emon	-7312
lers	-7313
▁Tap	-7314
▁Fuck	-7315
▁Laur	-7316
▁Trav	-7317
▁base	-7318
▁trip	-7319
▁Lorem	-7320
▁steel	-7321
▁Dealer	-7322
▁Trends	-7323
▁Lessons	-7324
▁ability	-7325
▁artists	-7326
▁problems	-7327
▁Tutorials	-7328
▁Classified	-7329
▁trademarks	-7330
▁Traditional	-7331
▁Subscription	-7332
YS	-7333
???	-7334
Hub	-7335
عرب	-7336
▁Es	-7337
erse	-7338
etic	-7339
made	-7340
olic	-7341
rama	-7342
▁DON	-7343
▁Hum	-7344
▁Spl	-7345
PPORT	-7346
▁Cock	-7347
▁Dise	-7348
▁cell	-7349
profit	-7350
▁Feeds	-7351
▁hands	-7352
▁optim	-7353
ocolate	-7354
▁Camera	-7355
▁Nether	-7356
▁ground	-7357
▁histor	-7358
▁premium	-7359
▁automatically	-7360
51	-7361
57	-7362
No	-7363
yo	-7364
Art	-7365
STR	-7366
cam	-7367
udi	-7368
▁ap	-7369
agen	-7370
▁Cin	-7371
▁isn	-7372
▁mach	-7373
▁2025,	-7374
▁Begin	-7375
▁Miami	-7376
▁Austin	-7377
▁Domain	-7378
▁sample	-7379
▁Fiction	-7380
▁industr	-7381
▁numbers	-7382
itzerland	-7383
▁Canadian	-7384
▁straight	-7385
▁Essential	-7386
▁Francisco	-7387
▁Assessment	-7388
▁Corporation	-7389
▁Consultation	-7390
/4	-7391
AZ	-7392
HD	-7393
gl	-7394
-24	-7395
▁4:	-7396
▁TN	-7397
Home	-7398
olis	-7399
onde	-7400
unter	-7401
▁Circ	-7402
▁Slot	-7403
▁loss	-7404
▁Faith	-7405
▁Score	-7406
▁Solar	-7407
▁saved	-7408
▁Format	-7409
ermanent	-7410
▁Perform	-7411
▁mailing	-7412
▁Investor	-7413
▁Whatsapp	-7414
▁electric	-7415
ommodation	-7416
▁Everything	-7417
▁leadership	-7418
54	-7419
8,	-7420
zh	-7421
▁Ε	-7422
ANS	-7423
▁5.	-7424
????	-7425
eets	-7426
▁CEO	-7427
▁ing	-7428
▁mat	-7429
▁pen	-7430
enues	-7431
phere	-7432
▁Does	-7433
▁Ever	-7434
▁Flat	-7435
▁INTER	-7436
▁LINKS	-7437
▁Rooms	-7438
▁homes	-7439
▁consum	-7440
▁spaces	-7441
▁amazing	-7442
▁catalog	-7443
▁contains	-7444
▁excellent	-7445
▁reference	-7446
▁Netherlands	-7447
);	-7448
25)	-7449
257	-7450
jpg	-7451
▁1-	-7452
▁EM	-7453
▁ET	-7454
▁ov	-7455
eway	-7456
pack	-7457
▁Cou	-7458
▁Hop	-7459
shirt	-7460
ulner	-7461
▁Edge	-7462
▁Kong	-7463
▁Mode	-7464
▁Pure	-7465
▁fall	-7466
▁CHECK	-7467
▁Codes	-7468
▁Korea	-7469
▁Tourn	-7470
▁cross	-7471
roidery	-7472
▁Better	-7473
▁Quotes	-7474
▁convers	-7475
▁Flooring	-7476
▁Telegram	-7477
▁intended	-7478
▁Programme	-7479
▁Automotive	-7480
▁membership	-7481
NE	-7482
jan	-7483
oln	-7484
tein	-7485
▁+91	-7486
▁Squ	-7487
▁Tür	-7488
▁har	-7489
aling	-7490
izona	-7491
▁Hats	-7492
▁Terr	-7493
▁para	-7494
▁Charm	-7495
▁Latin	-7496
▁Optim	-7497
▁cloud	-7498
▁glass	-7499
▁Trucks	-7500
▁vision	-7501
▁Mailing	-7502
▁SUBSCRIBE	-7503
▁Monitoring	-7504
▁Partnership	-7505
▁Scholarship	-7506
▁TitleAuthor	-7507
PN	-7508
Map	-7509
▁po	-7510
kins	-7511
lose	-7512
▁Ads	-7513
▁Kind	-7514
▁Pend	-7515
▁Race	-7516
▁Ride	-7517
▁Ware	-7518
▁bank	-7519
▁rich	-7520
▁warm	-7521
annels	-7522
ellery	-7523
ensing	-7524
▁Added	-7525
▁Their	-7526
▁Atlanta	-7527
▁Economy	-7528
▁Heating	-7529
▁Worship	-7530
▁written	-7531
YL	-7532
mo	-7533
AST	-7534
can	-7535
▁Op	-7536
edge	-7537
ilit	-7538
pers	-7539
▁Lod	-7540
▁Tab	-7541
▁que	-7542
▁slo	-7543
▁sus	-7544
ydney	-7545
▁Brun	-7546
▁Come	-7547
▁Mand	-7548
▁seat	-7549
▁Honda	-7550
▁broad	-7551
▁immed	-7552
▁intro	-7553
cedures	-7554
▁Crypto	-7555
▁length	-7556
▁levels	-7557
▁Already	-7558
▁Princip	-7559
▁Campaign	-7560
▁effective	-7561
▁Certificates	-7562
9.	-7563
BD	-7564
My	-7565
▁_	-7566
-26	-7567
Pad	-7568
how	-7569
▁**	-7570
▁77	-7571
▁DJ	-7572
▁$20	-7573
▁CAN	-7574
▁Vit	-7575
count	-7576
▁Fees	-7577
▁Jess	-7578
▁Prop	-7579
▁anal	-7580
▁elit	-7581
▁vibr	-7582
▁Guard	-7583
▁Intro	-7584
▁Lists	-7585
▁embed	-7586
▁gives	-7587
▁Nation	-7588
▁amount	-7589
▁easily	-7590
▁Belgium	-7591
▁CAPTCHA	-7592
▁Enquiry	-7593
▁growing	-7594
▁science	-7595
▁usually	-7596
▁Branding	-7597
▁physical	-7598
▁powerful	-7599
▁implement	-7600
cs	-7601
▁;	-7602
PER	-7603
adi	-7604
aks	-7605
cue	-7606
pre	-7607
▁//	-7608
▁43	-7609
▁km	-7610
Port	-7611
anna	-7612
erce	-7613
pton	-7614
▁Bee	-7615
▁Cow	-7616
▁PIN	-7617
About	-7618
store	-7619
▁clin	-7620
▁wild	-7621
atches	-7622
ounter	-7623
rystal	-7624
▁Focus	-7625
▁exact	-7626
▁movie	-7627
▁Indoor	-7628
▁Individ	-7629
▁gallery	-7630
▁listing	-7631
▁outdoor	-7632
ellaneous	-7633
▁Painting	-7634
▁Patterns	-7635
▁Victoria	-7636
▁Competition	-7637
53	-7638
AE	-7639
FS	-7640
한국	-7641
-17	-7642
aga	-7643
OURS	-7644
Part	-7645
This	-7646
ucle	-7647
▁CRE	-7648
▁Dur	-7649
▁Jes	-7650
▁Nam	-7651
▁div	-7652
anned	-7653
ourne	-7654
▁came	-7655
▁fans	-7656
ooting	-7657
▁Brook	-7658
▁liter	-7659
▁speed	-7660
▁worth	-7661
uctions	-7662
▁Hidden	-7663
▁titles	-7664
▁thought	-7665
▁remember	-7666
▁functions	-7667
▁Dimensions	-7668
▁Historical	-7669
▁Recreation	-7670
BN	-7671
IX	-7672
NET	-7673
iev	-7674
▁Fe	-7675
▁Kr	-7676
▁MB	-7677
▁MC	-7678
used	-7679
▁Jon	-7680
▁xxx	-7681
amous	-7682
▁Nick	-7683
▁Pets	-7684
▁Prot	-7685
terior	-7686
▁Const	-7687
▁miles	-7688
▁opens	-7689
ception	-7690
▁Gender	-7691
▁giving	-7692
▁visual	-7693
▁Offices	-7694
▁highest	-7695
▁Employee	-7696
▁Payments	-7697
▁tracking	-7698
▁Diversity	-7699
▁Languages	-7700
▁accessories	-7701
▁functionality	-7702
oa	-7703
sv	-7704
▁à	-7705
xml	-7706
▁6.	-7707
aise	-7708
berry	-7709
oston	-7710
reece	-7711
▁Bell	-7712
▁Caps	-7713
▁Dess	-7714
Expand	-7715
▁Niger	-7716
▁Parks	-7717
▁Ranch	-7718
▁Sorry	-7719
▁Veget	-7720
Twitter	-7721
▁Colour	-7722
▁FOLLOW	-7723
▁Logout	-7724
▁Person	-7725
▁chance	-7726
▁exclus	-7727
▁Springs	-7728
▁Toronto	-7729
▁provider	-7730
▁Developed	-7731
▁employees	-7732
▁comprehensive	-7733
▁understanding	-7734
Dr	-7735
Man	-7736
jsp	-7737
ORTS	-7738
▁YOU	-7739
▁Cath	-7740
▁Iron	-7741
▁heat	-7742
▁util	-7743
▁Brush	-7744
▁Queen	-7745
▁adult	-7746
▁rules	-7747
ulatory	-7748
▁Grants	-7749
▁Height	-7750
▁Hybrid	-7751
▁assist	-7752
▁tagged	-7753
▁Animals	-7754
▁Cultural	-7755
▁schedule	-7756
▁variants	-7757
▁efficient	-7758
▁Operations	-7759
▁Understanding	-7760
vd	-7761
-30	-7762
ISE	-7763
het	-7764
cher	-7765
comp	-7766
shop	-7767
▁Fro	-7768
▁GIF	-7769
▁blo	-7770
▁mic	-7771
letin	-7772
▁PHOT	-7773
▁SHIP	-7774
▁Tell	-7775
▁drop	-7776
▁ones	-7777
▁went	-7778
ECTION	-7779
venska	-7780
▁Domin	-7781
▁Spark	-7782
▁Coming	-7783
▁reason	-7784
▁Contents	-7785
▁Showcase	-7786
▁ensuring	-7787
▁Beautiful	-7788
▁innovation	-7789
▁strategies	-7790
ez	-7791
ped	-7792
▁FM	-7793
orer	-7794
term	-7795
▁Say	-7796
▁hit	-7797
▁tut	-7798
edict	-7799
igned	-7800
oting	-7801
verse	-7802
▁Buck	-7803
public	-7804
▁Dates	-7805
▁piece	-7806
▁relax	-7807
▁Sydney	-7808
▁acknow	-7809
▁brands	-7810
▁delete	-7811
▁garden	-7812
▁Cooking	-7813
▁Sponsor	-7814
▁leaders	-7815
▁Commerce	-7816
▁Automatic	-7817
▁Challenge	-7818
▁Connected	-7819
▁Inspiration	-7820
на	-7821
tes	-7822
▁Ax	-7823
▁TW	-7824
alty	-7825
card	-7826
▁11:	-7827
▁Bra	-7828
enger	-7829
ented	-7830
▁24/7	-7831
▁Hong	-7832
▁Lane	-7833
▁Ment	-7834
▁farm	-7835
▁idea	-7836
endors	-7837
loween	-7838
unning	-7839
▁Alert	-7840
▁Czech	-7841
▁Stats	-7842
▁Units	-7843
▁girls	-7844
▁Dragon	-7845
▁Resort	-7846
▁hidden	-7847
▁Massage	-7848
▁compare	-7849
▁Designer	-7850
▁Memorial	-7851
▁patients	-7852
▁Countries	-7853
▁Processing	-7854
▁especially	-7855
58	-7856
akh	-7857
▁Sy	-7858
▁kn	-7859
amas	-7860
file	-7861
idad	-7862
with	-7863
▁+44	-7864
▁MAN	-7865
▁syn	-7866
▁Coin	-7867
▁Ohio	-7868
▁sole	-7869
ifying	-7870
▁Clubs	-7871
▁Death	-7872
▁Older	-7873
▁Ultra	-7874
▁write	-7875
▁Hockey	-7876
▁apprec	-7877
▁Dispens	-7878
▁Imprint	-7879
▁Traffic	-7880
▁monthly	-7881
▁Outreach	-7882
▁Printing	-7883
▁messages	-7884
▁released	-7885
▁connection	-7886
▁publication	-7887
▁Contemporary	-7888
▁accessibility	-7889
GO	-7890
21)	-7891
cha	-7892
ulf	-7893
▁53	-7894
▁CM	-7895
▁Ke	-7896
▁Na	-7897
pace	-7898
rick	-7899
tery	-7900
▁Cov	-7901
▁Jer	-7902
▁Wel	-7903
image	-7904
occer	-7905
▁cash	-7906
▁town	-7907
bourne	-7908
bundle	-7909
▁Chrome	-7910
▁Female	-7911
▁Flight	-7912
▁Recogn	-7913
▁Turkey	-7914
▁config	-7915
▁Builder	-7916
▁designs	-7917
▁Progress	-7918
▁Requests	-7919
▁Inventory	-7920
▁committed	-7921
▁Artificial	-7922
▁electronic	-7923
vc	-7924
ASH	-7925
COM	-7926
sex	-7927
uru	-7928
▁BU	-7929
▁Fo	-7930
blog	-7931
ideo	-7932
▁1.5	-7933
▁Enh	-7934
▁Nom	-7935
▁OUT	-7936
ieved	-7937
▁Burg	-7938
▁LIST	-7939
▁core	-7940
▁fail	-7941
asures	-7942
▁Boxes	-7943
▁Facts	-7944
▁Songs	-7945
▁train	-7946
aughter	-7947
▁Budget	-7948
▁Crafts	-7949
▁diffic	-7950
▁spirit	-7951
▁weekly	-7952
▁Guarant	-7953
▁achieve	-7954
▁internet	-7955
▁Switzerland	-7956
ko	-7957
-03	-7958
-22	-7959
ARN	-7960
ATH	-7961
obs	-7962
▁NH	-7963
▁Mur	-7964
▁Nag	-7965
▁aim	-7966
▁der	-7967
lette	-7968
▁Bout	-7969
▁Pain	-7970
▁ship	-7971
etimes	-7972
option	-7973
▁Appli	-7974
▁Brain	-7975
▁Linux	-7976
▁usage	-7977
limited	-7978
▁Handle	-7979
▁Inform	-7980
▁footer	-7981
▁SUPPORT	-7982
▁Sidebar	-7983
▁critical	-7984
▁response	-7985
▁restrict	-7986
',	-7987
▁स	-7988
OAD	-7989
div	-7990
▁3:	-7991
Blog	-7992
VIEW	-7993
away	-7994
enny	-7995
▁MON	-7996
▁pok	-7997
tario	-7998
▁Audi	-7999
▁Boot	-8000
▁Hung	-8001
▁Loss	-8002
▁Mill	-8003
ectors	-8004
▁spins	-8005
▁trade	-8006
▁Equity	-8007
▁Wheels	-8008
▁Русский	-8009
subscribe	-8010
▁connected	-8011
▁Publishing	-8012
▁Submission	-8013
CD	-8014
Gu	-8015
vy	-8016
-02	-8017
IBM	-8018
aze	-8019
▁IV	-8020
▁Ty	-8021
ados	-8022
atur	-8023
gage	-8024
rent	-8025
▁Dar	-8026
▁inf	-8027
▁sep	-8028
▁tom	-8029
▁van	-8030
▁veg	-8031
opens	-8032
▁COLL	-8033
▁Cape	-8034
▁Pier	-8035
▁Yoga	-8036
▁2025.	-8037
▁LOGIN	-8038
▁peace	-8039
▁Casual	-8040
▁Propos	-8041
▁Robert	-8042
▁matter	-8043
▁Tourism	-8044
▁concern	-8045
▁picture	-8046
▁studies	-8047
▁Baseball	-8048
▁Scientific	-8049
VEL	-8050
VER	-8051
Web	-8052
fun	-8053
OUND	-8054
Time	-8055
cred	-8056
▁(24	-8057
▁Hab	-8058
▁nut	-8059
angel	-8060
essor	-8061
▁0.00	-8062
▁Boat	-8063
▁True	-8064
▁huge	-8065
andise	-8066
eaking	-8067
lished	-8068
▁Wales	-8069
▁asked	-8070
▁shown	-8071
istries	-8072
▁Jordan	-8073
▁Joseph	-8074
▁Leader	-8075
▁church	-8076
▁useful	-8077
itiative	-8078
▁Spotify	-8079
▁measure	-8080
▁morning	-8081
▁Economic	-8082
▁increase	-8083
ighborhood	-8084
▁Universal	-8085
▁languages	-8086
▁Businesses	-8087
▁permission	-8088
▁Sustainable	-8089
▁Distribution	-8090
▁availability	-8091
▁Certification	-8092
900	-8093
ady	-8094
avi	-8095
ista	-8096
lymp	-8097
yond	-8098
▁Isl	-8099
▁Liv	-8100
▁Raj	-8101
▁Obit	-8102
▁TEAM	-8103
▁gets	-8104
legant	-8105
riters	-8106
▁Belts	-8107
▁hotel	-8108
▁Thread	-8109
▁emails	-8110
▁stress	-8111
▁Arizona	-8112
▁Driving	-8113
▁channel	-8114
▁classes	-8115
▁maintain	-8116
▁Standards	-8117
▁Requirements	-8118
/8	-8119
5,	-8120
-04	-8121
-07	-8122
ods	-8123
▁97	-8124
▁Ti	-8125
▁Wa	-8126
▁bi	-8127
LINE	-8128
Link	-8129
enty	-8130
▁Its	-8131
▁PHP	-8132
▁ple	-8133
attoo	-8134
aught	-8135
▁Blow	-8136
▁baby	-8137
▁fram	-8138
▁late	-8139
▁Bottom	-8140
▁Dollar	-8141
▁Sweden	-8142
▁favour	-8143
▁posted	-8144
▁healthy	-8145
▁matches	-8146
▁viewing	-8147
▁Physical	-8148
▁entertain	-8149
▁Highlights	-8150
▁commitment	-8151
▁subscriber	-8152
▁Destinations	-8153
")	-8154
.:	-8155
TI	-8156
bb	-8157
ni	-8158
igs	-8159
▁ge	-8160
ICAL	-8161
ares	-8162
▁DVD	-8163
▁Got	-8164
▁Put	-8165
▁$100	-8166
▁Bern	-8167
▁Dive	-8168
▁Fold	-8169
▁Role	-8170
▁mode	-8171
▁soft	-8172
azines	-8173
▁Relig	-8174
▁codes	-8175
acebook	-8176
ecurity	-8177
▁double	-8178
▁master	-8179
▁Leaders	-8180
▁pattern	-8181
▁trusted	-8182
▁volunte	-8183
▁Consumer	-8184
▁Glossary	-8185
▁Prospect	-8186
▁decision	-8187
▁pictures	-8188
▁Agreement	-8189
▁Transform	-8190
▁processing	-8191
▁collections	-8192
▁experienced	-8193
%)	-8194
/12	-8195
▁64	-8196
▁94	-8197
▁Ay	-8198
▁fe	-8199
endo	-8200
gypt	-8201
yres	-8202
▁(10	-8203
▁600	-8204
▁Bob	-8205
▁Bos	-8206
▁Bub	-8207
▁COR	-8208
▁Hit	-8209
▁Ram	-8210
▁Rog	-8211
▁fee	-8212
▁nov	-8213
agers	-8214
athan	-8215
burgh	-8216
ounge	-8217
▁Elev	-8218
▁Firm	-8219
▁Init	-8220
▁Ster	-8221
verter	-8222
▁Datas	-8223
▁Pizza	-8224
ections	-8225
gentina	-8226
▁Chairs	-8227
▁Sloven	-8228
▁Philipp	-8229
▁Quarter	-8230
▁Uniform	-8231
▁largest	-8232
▁Apartment	-8233
▁Followers	-8234
▁Printable	-8235
▁anonymous	-8236
▁completed	-8237
▁Educational	-8238
▁recommended	-8239
120	-8240
pur	-8241
▁$2	-8242
▁56	-8243
▁88	-8244
ATES	-8245
rast	-8246
▁180	-8247
▁CAD	-8248
▁Fed	-8249
▁Rib	-8250
▁Rum	-8251
▁six	-8252
front	-8253
idget	-8254
▁2001	-8255
boards	-8256
incoln	-8257
▁Blank	-8258
▁Boots	-8259
▁Dispos	-8260
▁Points	-8261
▁SEARCH	-8262
▁Script	-8263
▁attend	-8264
▁Counsel	-8265
▁Methods	-8266
▁NEWSLET	-8267
▁Threads	-8268
▁allowed	-8269
▁setting	-8270
▁Donation	-8271
▁Messages	-8272
▁Pressure	-8273
▁Subjects	-8274
▁template	-8275
▁Manchester	-8276
▁confidence	-8277
De	-8278
PG	-8279
sa	-8280
ст	-8281
OSE	-8282
awn	-8283
bow	-8284
▁TM	-8285
anny	-8286
ears	-8287
heet	-8288
▁Dou	-8289
▁Eat	-8290
▁Gym	-8291
▁NAS	-8292
▁gar	-8293
idate	-8294
organ	-8295
▁JOIN	-8296
▁Kont	-8297
▁Rome	-8298
▁Then	-8299
▁Türk	-8300
▁circ	-8301
▁fest	-8302
▁happ	-8303
▁teen	-8304
prises	-8305
▁Jason	-8306
▁Opera	-8307
▁metal	-8308
▁Proble	-8309
▁Produc	-8310
▁cancel	-8311
▁switch	-8312
▁episode	-8313
▁Graduate	-8314
▁Homepage	-8315
▁policies	-8316
▁Halloween	-8317
▁Paintings	-8318
▁Components	-8319
hes	-8320
iac	-8321
oen	-8322
rid	-8323
via	-8324
▁EC	-8325
data	-8326
empt	-8327
eras	-8328
igen	-8329
ocal	-8330
▁ACT	-8331
▁bul	-8332
▁dur	-8333
▁esc	-8334
IGHTS	-8335
aches	-8336
adata	-8337
▁Vers	-8338
Shirts	-8339
urning	-8340
urpose	-8341
▁Vegas	-8342
▁owned	-8343
▁trail	-8344
ipboard	-8345
▁Agents	-8346
▁Greece	-8347
▁Target	-8348
▁Taylor	-8349
▁Window	-8350
▁struct	-8351
▁symbol	-8352
▁Continu	-8353
▁Credits	-8354
▁SERVICE	-8355
▁Speaker	-8356
▁Species	-8357
▁Winners	-8358
▁publish	-8359
▁twitter	-8360
▁existing	-8361
▁Promotions	-8362
▁References	-8363
▁photograph	-8364
▁photography	-8365
▁particularly	-8366
tv	-8367
▁Der	-8368
▁LOC	-8369
▁Nap	-8370
▁Neg	-8371
amics	-8372
asion	-8373
comes	-8374
ctors	-8375
world	-8376
▁CARE	-8377
▁Desk	-8378
▁Horn	-8379
▁Iowa	-8380
▁pain	-8381
▁retr	-8382
▁tags	-8383
▁vary	-8384
▁Chief	-8385
▁Spins	-8386
▁Around	-8387
▁Launch	-8388
▁Owners	-8389
▁RESOUR	-8390
▁wonder	-8391
▁Casinos	-8392
▁parents	-8393
▁interesting	-8394
▁Professionals	-8395
7,	-8396
As	-8397
eu	-8398
çe	-8399
asi	-8400
▁58	-8401
Life	-8402
days	-8403
stan	-8404
▁ISO	-8405
▁Jac	-8406
▁Jim	-8407
▁Syr	-8408
▁ban	-8409
ealth	-8410
ician	-8411
▁2004	-8412
▁Marc	-8413
▁Math	-8414
agnost	-8415
▁Heavy	-8416
▁grant	-8417
▁notes	-8418
iatives	-8419
▁Breast	-8420
▁Daniel	-8421
▁Driver	-8422
▁beyond	-8423
levision	-8424
▁Devices	-8425
▁Healthy	-8426
▁Notices	-8427
▁Reserve	-8428
▁classic	-8429
▁offered	-8430
▁parties	-8431
▁species	-8432
▁Visitors	-8433
▁submitted	-8434
▁exclusively	-8435
▁specifically	-8436
▁Miscellaneous	-8437
简体	-8438
/11	-8439
ebr	-8440
esp	-8441
hot	-8442
olo	-8443
▁Ah	-8444
▁FC	-8445
▁QP	-8446
ulpt	-8447
▁4.0	-8448
▁50%	-8449
▁CAM	-8450
▁fig	-8451
esome	-8452
index	-8453
riger	-8454
▁8:30	-8455
▁BEST	-8456
▁Bron	-8457
▁CALL	-8458
▁cock	-8459
▁spot	-8460
▁tits	-8461
▁took	-8462
enuine	-8463
unches	-8464
▁Creek	-8465
▁Likes	-8466
▁loved	-8467
,000.00	-8468
▁Mechan	-8469
▁visits	-8470
▁Gambling	-8471
▁Machines	-8472
▁Supplier	-8473
▁guidance	-8474
▁Hollywood	-8475
▁attention	-8476
▁platforms	-8477
▁innovative	-8478
▁Interactive	-8479
Am	-8480
rc	-8481
elp	-8482
opy	-8483
▁76	-8484
▁89	-8485
▁GO	-8486
▁ic	-8487
anth	-8488
chat	-8489
host	-8490
ibus	-8491
▁Bir	-8492
check	-8493
going	-8494
▁Bond	-8495
▁Mall	-8496
▁else	-8497
▁poor	-8498
▁viol	-8499
irates	-8500
▁Owner	-8501
▁Solid	-8502
▁woman	-8503
▁Boards	-8504
▁Boston	-8505
▁DESIGN	-8506
▁During	-8507
▁Sleeve	-8508
▁handle	-8509
▁refresh	-8510
▁sessions	-8511
▁Inclusion	-8512
▁Committees	-8513
▁absolutely	-8514
▁Instructions	-8515
NG	-8516
150	-8517
ANY	-8518
Str	-8519
apy	-8520
esa	-8521
lyn	-8522
oir	-8523
xim	-8524
-200	-8525
etur	-8526
icit	-8527
▁III	-8528
▁ISS	-8529
▁REL	-8530
▁dig	-8531
▁neg	-8532
Trans	-8533
▁(12)	-8534
▁Beds	-8535
▁Feel	-8536
▁PROJ	-8537
▁Zone	-8538
▁didn	-8539
▁half	-8540
ulated	-8541
weight	-8542
▁Grass	-8543
▁Prior	-8544
▁Relev	-8545
▁album	-8546
▁dates	-8547
▁proud	-8548
▁Poland	-8549
▁Unique	-8550
▁agency	-8551
▁crypto	-8552
▁Dresses	-8553
▁Minutes	-8554
▁Running	-8555
▁meaning	-8556
▁Response	-8557
▁starting	-8558
▁Telephone	-8559
▁Translation	-8560
IK	-8561
di	-8562
▁Hu	-8563
▁af	-8564
egal	-8565
rich	-8566
▁BUS	-8567
▁Hil	-8568
▁Ski	-8569
▁Bull	-8570
▁POST	-8571
▁Catal	-8572
▁Stuff	-8573
▁Urban	-8574
▁voice	-8575
▁Compos	-8576
▁Laptop	-8577
▁Powder	-8578
▁smooth	-8579
aluation	-8580
▁element	-8581
▁External	-8582
▁Facility	-8583
▁SHIPPING	-8584
▁surround	-8585
▁Extension	-8586
▁Spotlight	-8587
▁successful	-8588
EF	-8589
Im	-8590
ар	-8591
You	-8592
▁KB	-8593
▁SF	-8594
▁UI	-8595
▁WW	-8596
sequ	-8597
▁ARE	-8598
▁Fat	-8599
▁GRE	-8600
▁Gem	-8601
▁WAT	-8602
▁cum	-8603
▁typ	-8604
izens	-8605
▁Buff	-8606
▁Scar	-8607
▁Trib	-8608
▁legit	-8609
▁Bright	-8610
▁Tumblr	-8611
▁adjust	-8612
▁prefer	-8613
▁Concert	-8614
▁Lecture	-8615
▁Receive	-8616
▁instead	-8617
▁Friendly	-8618
▁Historic	-8619
▁Recovery	-8620
▁checkout	-8621
▁supports	-8622
▁NEWSLETTER	-8623
▁Specialist	-8624
▁difference	-8625
▁Anniversary	-8626
▁Experiences	-8627
8.	-8628
EP	-8629
js	-8630
ERN	-8631
arr	-8632
▁Da	-8633
▁MT	-8634
▁mo	-8635
Care	-8636
heme	-8637
opes	-8638
▁1-8	-8639
▁hum	-8640
avail	-8641
chain	-8642
ecast	-8643
عربية	-8644
▁Fitt	-8645
▁Liber	-8646
▁Olymp	-8647
▁steps	-8648
riteria	-8649
▁Comics	-8650
▁Inside	-8651
▁Korean	-8652
▁Mockup	-8653
▁hotels	-8654
required	-8655
▁Impress	-8656
▁Inquiry	-8657
▁Repairs	-8658
▁respond	-8659
▁Institut	-8660
▁Logistics	-8661
▁Replacement	-8662
▁relationship	-8663
Be	-8664
GH	-8665
tok	-8666
▁54	-8667
▁98	-8668
▁한국	-8669
Post	-8670
aped	-8671
asil	-8672
atin	-8673
imin	-8674
pare	-8675
▁Kid	-8676
▁MUS	-8677
arger	-8678
cohol	-8679
▁Belt	-8680
▁GALL	-8681
▁Harm	-8682
▁MEMB	-8683
▁Quiz	-8684
▁imag	-8685
▁unit	-8686
acking	-8687
ighter	-8688
▁Elite	-8689
▁floor	-8690
▁reset	-8691
ourcing	-8692
▁Attend	-8693
▁Reddit	-8694
▁places	-8695
▁signed	-8696
▁thanks	-8697
▁Organic	-8698
▁podcast	-8699
▁Transpar	-8700
▁Websites	-8701
▁Signature	-8702
▁presented	-8703
▁educational	-8704
▁subscription	-8705
BM	-8706
PO	-8707
cn	-8708
ην	-8709
λλ	-8710
ار	-8711
AIN	-8712
abb	-8713
▁Ey	-8714
▁Ju	-8715
▁MN	-8716
▁Mi	-8717
Name	-8718
eech	-8719
like	-8720
mart	-8721
ooks	-8722
ourg	-8723
thon	-8724
▁Due	-8725
▁MOD	-8726
▁Pel	-8727
▁Pit	-8728
▁Shr	-8729
▁hor	-8730
▁por	-8731
▁san	-8732
iesel	-8733
utter	-8734
▁Tube	-8735
▁extr	-8736
▁fair	-8737
▁mail	-8738
▁Doors	-8739
▁Horse	-8740
▁Major	-8741
▁wrong	-8742
▁Agenda	-8743
▁Berlin	-8744
▁Choice	-8745
▁Comedy	-8746
▁Labels	-8747
▁Oracle	-8748
▁Pickup	-8749
▁Shower	-8750
▁almost	-8751
▁launch	-8752
▁listen	-8753
▁Freedom	-8754
▁Ontario	-8755
▁Roofing	-8756
▁opening	-8757
▁elements	-8758
▁Locksmith	-8759
▁structure	-8760
▁Ministries	-8761
▁engineering	-8762
▁Presentation	-8763
Le	-8764
Day	-8765
ITS	-8766
aco	-8767
alm	-8768
itz	-8769
▁78	-8770
▁Ta	-8771
5.00	-8772
alls	-8773
alse	-8774
bean	-8775
iang	-8776
ingo	-8777
omet	-8778
otic	-8779
▁CAP	-8780
▁Cod	-8781
▁HEL	-8782
▁Hay	-8783
▁Lyn	-8784
▁cru	-8785
▁den	-8786
ested	-8787
izers	-8788
▁Blvd	-8789
▁Cann	-8790
▁Puzz	-8791
▁REAL	-8792
▁Snap	-8793
▁dark	-8794
etters	-8795
quisit	-8796
▁Jesus	-8797
▁separ	-8798
▁sizes	-8799
▁Drinks	-8800
▁Orient	-8801
▁effort	-8802
▁former	-8803
▁trying	-8804
friendly	-8805
▁Charity	-8806
▁Cycling	-8807
▁Hearing	-8808
▁Sharing	-8809
▁Ukraine	-8810
▁booking	-8811
▁funding	-8812
▁Strength	-8813
▁Wildlife	-8814
▁exchange	-8815
▁hospital	-8816
▁recovery	-8817
AW	-8818
Gen	-8819
OTE	-8820
vis	-8821
▁ML	-8822
▁Mu	-8823
▁mi	-8824
born	-8825
roke	-8826
▁Joy	-8827
▁gas	-8828
▁sed	-8829
INESS	-8830
actor	-8831
antly	-8832
ouver	-8833
owned	-8834
▁1999	-8835
▁Tank	-8836
▁mand	-8837
▁Anime	-8838
▁Waste	-8839
▁funds	-8840
▁rooms	-8841
▁stage	-8842
enities	-8843
ervices	-8844
▁Carbon	-8845
▁Cosmet	-8846
▁Expand	-8847
▁Import	-8848
▁Resume	-8849
▁Sector	-8850
▁Tradem	-8851
▁moving	-8852
▁Choices	-8853
▁Creator	-8854
▁Handles	-8855
▁Illustr	-8856
▁correctly	-8857
▁providers	-8858
ELS	-8859
Jan	-8860
eto	-8861
itr	-8862
9.99	-8863
asks	-8864
dale	-8865
illy	-8866
jury	-8867
rops	-8868
▁Dod	-8869
▁Lip	-8870
▁SOC	-8871
▁USB	-8872
▁mer	-8873
▁scr	-8874
Event	-8875
▁(13)	-8876
▁Soul	-8877
▁rock	-8878
▁Diego	-8879
▁Jones	-8880
▁ideal	-8881
hedules	-8882
▁Enroll	-8883
▁Answers	-8884
▁Finding	-8885
▁Sessions	-8886
6.	-8887
888	-8888
ILE	-8889
ivo	-8890
ria	-8891
▁RV	-8892
adel	-8893
resp	-8894
▁123	-8895
▁Nep	-8896
▁Wix	-8897
Shirt	-8898
allow	-8899
arily	-8900
cepts	-8901
stein	-8902
":"","	-8903
incess	-8904
▁Carib	-8905
▁Greek	-8906
▁Woman	-8907
▁guest	-8908
▁motor	-8909
▁offic	-8910
ousands	-8911
▁Americ	-8912
▁Guitar	-8913
▁Kansas	-8914
▁Tagged	-8915
▁colors	-8916
iability	-8917
▁Lincoln	-8918
▁balance	-8919
▁century	-8920
▁nothing	-8921
▁vibrant	-8922
▁Favorite	-8923
▁exciting	-8924
▁withdraw	-8925
▁Something	-8926
▁ACCESSORIES	-8927
('	-8928
EK	-8929
px	-8930
23)	-8931
26)	-8932
Out	-8933
Pre	-8934
yar	-8935
bell	-8936
iced	-8937
inge	-8938
▁Arc	-8939
▁Ing	-8940
cient	-8941
riage	-8942
▁Meat	-8943
▁SPEC	-8944
▁zoom	-8945
isters	-8946
▁Scale	-8947
▁defin	-8948
ilation	-8949
▁Alerts	-8950
▁Ethics	-8951
▁Hiring	-8952
▁finish	-8953
▁Auctions	-8954
▁Citation	-8955
▁Contests	-8956
▁Together	-8957
▁positive	-8958
▁Authority	-8959
▁Investors	-8960
▁Precision	-8961
▁featuring	-8962
▁Curriculum	-8963
▁Excellence	-8964
▁Attribution	-8965
("	-8966
02	-8967
05	-8968
AME	-8969
INA	-8970
omy	-8971
uda	-8972
▁59	-8973
▁63	-8974
▁74	-8975
▁hy	-8976
▁2.5	-8977
▁ENG	-8978
▁Eco	-8979
▁Ott	-8980
block	-8981
isure	-8982
point	-8983
regon	-8984
riers	-8985
▁HERE	-8986
▁Lind	-8987
▁Orch	-8988
▁forg	-8989
friend	-8990
iately	-8991
▁Retro	-8992
▁Tower	-8993
▁score	-8994
heduled	-8995
ignment	-8996
▁Hentai	-8997
▁Observ	-8998
▁Oldest	-8999
▁brings	-9000
▁guides	-9001
▁plants	-9002
graduate	-9003
▁kitchen	-9004
▁returns	-9005
ictionary	-9006
▁Currency	-9007
▁Discount	-9008
▁Jewellery	-9009
▁RESOURCES	-9010
▁Represent	-9011
▁landscape	-9012
▁personalized	-9013
Ac	-9014
svg	-9015
▁67	-9016
▁6:	-9017
▁SV	-9018
▁TS	-9019
arma	-9020
jack	-9021
oust	-9022
▁10%	-9023
▁3.0	-9024
▁Coc	-9025
▁Egg	-9026
▁Seg	-9027
▁Tip	-9028
allas	-9029
posit	-9030
words	-9031
▁Fans	-9032
▁Soon	-9033
▁VIEW	-9034
▁apps	-9035
▁dise	-9036
▁scen	-9037
orable	-9038
▁Brass	-9039
▁Egypt	-9040
▁Lunch	-9041
▁Screw	-9042
▁Spray	-9043
▁Third	-9044
▁forms	-9045
▁heavy	-9046
▁named	-9047
▁older	-9048
▁sweet	-9049
▁youth	-9050
ocation	-9051
▁Poetry	-9052
▁Masters	-9053
▁Matthew	-9054
▁Svenska	-9055
▁sorting	-9056
▁testing	-9057
▁Duration	-9058
▁Seasonal	-9059
▁versions	-9060
▁Customers	-9061
▁administr	-9062
▁Fellowship	-9063
▁Philosophy	-9064
▁techniques	-9065
▁Independent	-9066
▁statistical	-9067
▁с	-9068
fly	-9069
hus	-9070
▁Wy	-9071
2024	-9072
Page	-9073
from	-9074
oral	-9075
▁DOW	-9076
▁Fee	-9077
▁Hus	-9078
▁Loy	-9079
▁Pix	-9080
▁RET	-9081
▁WIN	-9082
▁wel	-9083
USTOM	-9084
orter	-9085
▁(15)	-9086
▁Beat	-9087
▁Myst	-9088
▁Embed	-9089
▁units	-9090
▁DONATE	-9091
▁Hosted	-9092
▁Ladies	-9093
▁Mature	-9094
▁expand	-9095
▁retail	-9096
▁survey	-9097
▁changed	-9098
▁prevent	-9099
▁pricing	-9100
▁weekend	-9101
▁Trailers	-9102
▁accurate	-9103
▁audience	-9104
▁Melbourne	-9105
Is	-9106
Sw	-9107
YR	-9108
ju	-9109
uw	-9110
▁म	-9111
-14	-9112
Col	-9113
lim	-9114
▁LO	-9115
▁Os	-9116
ATUR	-9117
iper	-9118
oven	-9119
yard	-9120
▁cup	-9121
agues	-9122
etime	-9123
inery	-9124
▁(31)	-9125
▁Left	-9126
unicip	-9127
▁Still	-9128
▁slots	-9129
▁CUSTOM	-9130
▁Charts	-9131
▁Comfort	-9132
▁impress	-9133
available	-9134
▁Attorney	-9135
▁Instruct	-9136
▁keyboard	-9137
▁Argentina	-9138
▁Structure	-9139
▁locations	-9140
▁otherwise	-9141
▁Elementary	-9142
▁Agriculture	-9143
▁exceptional	-9144
▁documentation	-9145
TO	-9146
mi	-9147
är	-9148
ía	-9149
ONS	-9150
gal	-9151
jar	-9152
lig	-9153
obe	-9154
ovo	-9155
phy	-9156
uty	-9157
▁$0	-9158
▁CF	-9159
OUNT	-9160
addy	-9161
bers	-9162
chol	-9163
irty	-9164
usic	-9165
▁$19	-9166
▁Bou	-9167
▁Kir	-9168
▁Nav	-9169
▁POP	-9170
▁Pub	-9171
▁son	-9172
issan	-9173
plays	-9174
▁Mood	-9175
▁corn	-9176
▁edge	-9177
ansion	-9178
▁Stars	-9179
▁Trees	-9180
▁cause	-9181
▁death	-9182
ighting	-9183
▁Circle	-9184
▁Dinner	-9185
▁Legacy	-9186
▁Stable	-9187
▁Struct	-9188
▁Talent	-9189
▁Toyota	-9190
▁trends	-9191
▁wanted	-9192
▁worked	-9193
▁Contain	-9194
▁Convers	-9195
▁Desktop	-9196
▁driving	-9197
▁العربية	-9198
▁Breaking	-9199
▁Wireless	-9200
▁cultural	-9201
▁Specialty	-9202
▁corporate	-9203
▁Compatible	-9204
▁Contributors	-9205
▁▾	-9206
700	-9207
ANC	-9208
Pol	-9209
mbH	-9210
sea	-9211
▁+9	-9212
▁5:	-9213
▁AZ	-9214
▁DT	-9215
ando	-9216
ante	-9217
ifer	-9218
udio	-9219
▁501	-9220
▁eye	-9221
▁vel	-9222
rated	-9223
umbai	-9224
▁CONN	-9225
▁Crew	-9226
▁Stop	-9227
▁roof	-9228
▁tech	-9229
▁wife	-9230
encing	-9231
▁Outer	-9232
▁Posit	-9233
▁medic	-9234
▁Colors	-9235
▁Memory	-9236
▁Period	-9237
▁Türkçe	-9238
▁hosted	-9239
▁medium	-9240
▁Romance	-9241
▁Sellers	-9242
▁consist	-9243
▁proceed	-9244
▁Columbia	-9245
▁Portugal	-9246
▁requests	-9247
▁healthcare	-9248
▁legitimate	-9249
▁communications	-9250
6,	-9251
6-	-9252
db	-9253
ori	-9254
osh	-9255
rob	-9256
unc	-9257
ATEG	-9258
Shop	-9259
answ	-9260
mann	-9261
ouri	-9262
▁Dak	-9263
▁Lit	-9264
▁bow	-9265
▁mid	-9266
▁vac	-9267
under	-9268
▁Ferr	-9269
▁GmbH	-9270
▁Seal	-9271
▁fine	-9272
ancies	-9273
ducing	-9274
▁limit	-9275
▁Cheese	-9276
▁Liquid	-9277
▁Polski	-9278
▁budget	-9279
▁contin	-9280
▁Gardens	-9281
▁edition	-9282
▁fashion	-9283
▁fiction	-9284
▁Newsroom	-9285
▁Teachers	-9286
▁detailed	-9287
▁Character	-9288
▁Spiritual	-9289
▁directory	-9290
▁portfolio	-9291
▁validation	-9292
▁Instruments	-9293
▁Sponsorship	-9294
▁relationships	-9295
CM	-9296
Per	-9297
▁AU	-9298
aded	-9299
bian	-9300
emic	-9301
girl	-9302
tech	-9303
▁000	-9304
▁Gel	-9305
▁Joe	-9306
▁LAT	-9307
▁Lim	-9308
▁sam	-9309
▁tre	-9310
avors	-9311
inois	-9312
▁4:00	-9313
▁5:30	-9314
▁Deck	-9315
▁Gran	-9316
▁born	-9317
uclear	-9318
▁Bowls	-9319
▁Deliv	-9320
▁Never	-9321
▁Plate	-9322
▁Tamil	-9323
▁Therm	-9324
▁hello	-9325
related	-9326
▁Ambass	-9327
▁academ	-9328
▁annual	-9329
▁couple	-9330
▁origin	-9331
▁Bedroom	-9332
▁Centers	-9333
▁Measure	-9334
▁Officer	-9335
▁finding	-9336
▁illustr	-9337
▁BUSINESS	-9338
▁Charlott	-9339
▁Chemical	-9340
▁Associates	-9341
/2	-9342
BE	-9343
ção	-9344
▁5-	-9345
▁KN	-9346
▁RM	-9347
MAIL	-9348
▁20%	-9349
▁CLE	-9350
▁Gra	-9351
▁Lex	-9352
▁Sin	-9353
▁Sud	-9354
▁lik	-9355
▁nor	-9356
▁ven	-9357
ublin	-9358
▁(16)	-9359
▁Lord	-9360
▁Rice	-9361
▁Tile	-9362
▁Wide	-9363
▁band	-9364
▁Peace	-9365
▁Quilt	-9366
▁Vouch	-9367
viation	-9368
▁Assist	-9369
▁Denver	-9370
▁Gloves	-9371
▁degree	-9372
▁played	-9373
▁Picture	-9374
▁Seattle	-9375
▁Watches	-9376
▁answers	-9377
▁Ascending	-9378
▁Permanent	-9379
▁Political	-9380
▁Disclosure	-9381
▁conference	-9382
▁Restoration	-9383
▁publications	-9384
▁entertainment	-9385
BI	-9386
kg	-9387
28)	-9388
amm	-9389
bro	-9390
ech	-9391
ugh	-9392
van	-9393
▁51	-9394
abis	-9395
ecca	-9396
ibly	-9397
inct	-9398
osis	-9399
rors	-9400
▁LIF	-9401
▁SAP	-9402
▁pow	-9403
World	-9404
color	-9405
rowse	-9406
▁Into	-9407
▁Mega	-9408
▁Mess	-9409
▁STUD	-9410
ellite	-9411
undred	-9412
▁Again	-9413
▁Buyer	-9414
▁Tires	-9415
▁ahead	-9416
ordance	-9417
▁Easter	-9418
▁Polish	-9419
▁Amateur	-9420
▁Counter	-9421
▁Trailer	-9422
▁seconds	-9423
▁Aluminum	-9424
▁Episodes	-9425
▁Graphics	-9426
▁pressure	-9427
▁Following	-9428
▁Workplace	-9429
▁Inspection	-9430
5.	-9431
9,	-9432
SD	-9433
но	-9434
Has	-9435
Rep	-9436
nic	-9437
▁86	-9438
▁Ot	-9439
▁WI	-9440
▁WP	-9441
▁od	-9442
GRAM	-9443
ansk	-9444
path	-9445
▁Hex	-9446
▁LTD	-9447
▁Rig	-9448
▁SER	-9449
▁reC	-9450
▁sen	-9451
urban	-9452
▁BACK	-9453
▁Burn	-9454
▁Cake	-9455
▁Jazz	-9456
▁WHAT	-9457
▁blow	-9458
▁demo	-9459
▁vill	-9460
▁Allow	-9461
▁MEDIA	-9462
▁bound	-9463
▁label	-9464
▁Arabic	-9465
▁Layout	-9466
▁Native	-9467
▁Norway	-9468
▁covers	-9469
▁forums	-9470
▁remote	-9471
▁threat	-9472
▁Cooling	-9473
▁Weekend	-9474
▁however	-9475
▁Vacation	-9476
▁discount	-9477
▁overview	-9478
▁Motorcycle	-9479
▁Strategies	-9480
▁sustainable	-9481
HP	-9482
št	-9483
▁	-9484
e	-9485
o	-9486
a	-9487
t	-9488
i	-9489
r	-9490
n	-9491
s	-9492
l	-9493
c	-9494
u	-9495
d	-9496
h	-9497
m	-9498
p	-9499
g	-9500
y	-9501
S	-9502
f	-9503
b	-9504
C	-9505
A	-9506
w	-9507
v	-9508
0	-9509
.	-9510
P	-9511
T	-9512
2	-9513
k	-9514
M	-9515
R	-9516
E	-9517
1	-9518
,	-9519
I	-9520
L	-9521
B	-9522
D	-9523
N	-9524
O	-9525
F	-9526
-	-9527
H	-9528
W	-9529
G	-9530
U	-9531
:	-9532
5	-9533
3	-9534
4	-9535
x	-9536
6	-9537
9	-9538
V	-9539
8	-9540
)	-9541
(	-9542
7	-9543
J	-9544
/	-9545
K	-9546
Y	-9547
&	-9548
z	-9549
j	-9550
q	-9551
|	-9552
'	-9553
Q	-9554
’	-9555
!	-9556
?	-9557
"	-9558
–	-9559
X	-9560
$	-9561
©	-9562
_	-9563
+	-9564
Z	-9565
*	-9566
@	-9567
[	-9568
]	-9569
>	-9570
%	-9571
#	-9572
”	-9573
“	-9574
;	-9575
=	-9576
é	-9577
{	-9578
}	-9579
•	-9580
»	-9581
×	-9582
►	-9583
·	-9584
—	-9585
£	-9586
а	-9587
€	-9588
<	-9589
ا	-9590
с	-9591
и	-9592
к	-9593
ç	-9594
á	-9595
®	-9596
о	-9597
е	-9598
н	-9599
ó	-9600
р	-9601
‘	-9602
′	-9603
í	-9604
ü	-9605
ر	-9606
ñ	-9607
ل	-9608
的	-9609
\	-9610
中	-9611
т	-9612
文	-9613
ä	-9614
ー	-9615
ा	-9616
«	-9617
र	-9618
日	-9619
↳	-9620
₹	-9621
م	-9622
°	-9623
л	-9624
→	-9625
ي	-9626
ö	-9627
า	-9628
ê	-9629
α	-9630
ı	-9631
و	-9632
â	-9633
्	-9634
у	-9635
ι	-9636
ン	-9637
ب	-9638
े	-9639
ी	-9640
à	-9641
Р	-9642
。	-9643
ت	-9644
本	-9645
क	-9646
›	-9647
ร	-9648
λ	-9649
ο	-9650
の	-9651
~	-9652
ن	-9653
в	-9654
ν	-9655
й	-9656
ی	-9657
š	-9658
ि	-9659
د	-9660
ع	-9661
Δ	-9662
★	-9663
イ	-9664
年	-9665
न	-9666
ε	-9667
一	-9668
、	-9669
語	-9670
新	-9671
س	-9672
ة	-9673
用	-9674
น	-9675
อ	-9676
τ	-9677
м	-9678
ス	-9679
κ	-9680
स	-9681
月	-9682
ह	-9683
️	-9684
è	-9685
人	-9686
д	-9687
č	-9688
п	-9689
品	-9690
η	-9691
←	-9692
有	-9693
ρ	-9694
ト	-9695
ं	-9696
å	-9697
大	-9698
म	-9699
μ	-9700
द	-9701
我	-9702
이	-9703
ł	-9704
在	-9705
作	-9706
한	-9707
з	-9708
ь	-9709
↗	-9710
เ	-9711
い	-9712
σ	-9713
่	-9714
ง	-9715
ท	-9716
ย	-9717
С	-9718
я	-9719
ú	-9720
Ε	-9721
प	-9722
บ	-9723
ส	-9724
ル	-9725
त	-9726
ल	-9727
ά	-9728
ы	-9729
ต	-9730
г	-9731
ã	-9732
學	-9733
入	-9734
ล	-9735
π	-9736
Ð	-9737
้	-9738
य	-9739
Â	-9740
⁄	-9741
ก	-9742
▼	-9743
に	-9744
体	-9745
්	-9746
し	-9747
会	-9748
分	-9749
국	-9750
ม	-9751
ς	-9752
リ	-9753
י	-9754
ค	-9755
ิ	-9756
公	-9757
ş	-9758
ク	-9759
ف	-9760
ั	-9761
ア	-9762
б	-9763
어	-9764
を	-9765
国	-9766
て	-9767
地	-9768
不	-9769
☆	-9770
ラ	-9771
简	-9772
ā	-9773
기	-9774
­	-9775
ด	-9776
上	-9777
全	-9778
É	-9779
ه	-9780
න	-9781
学	-9782
ो	-9783
方	-9784
ى	-9785
व	-9786
小	-9787
া	-9788
加	-9789
合	-9790
成	-9791
ี	-9792
行	-9793
ق	-9794
子	-9795
版	-9796
生	-9797
る	-9798
下	-9799
體	-9800
İ	-9801
プ	-9802
ă	-9803
ไ	-9804
Ñ	-9805
ว	-9806
タ	-9807
로	-9808
号	-9809
‹	-9810
者	-9811
Č	-9812
网	-9813
家	-9814
ø	-9815
ッ	-9816
‍	-9817
法	-9818
站	-9819
`	-9820
ك	-9821
▾	-9822
で	-9823
・	-9824
台	-9825
ロ	-9826
商	-9827
情	-9828
ح	-9829
َ	-9830
인	-9831
ό	-9832
ר	-9833
ド	-9834
ð	-9835
所	-9836
Ÿ	-9837
す	-9838
と	-9839
能	-9840
た	-9841
系	-9842
お	-9843
シ	-9844
物	-9845
科	-9846
Ü	-9847
ế	-9848
ệ	-9849
市	-9850
サ	-9851
理	-9852
ි	-9853
‐	-9854
ま	-9855
和	-9856
工	-9857
期	-9858
ش	-9859
是	-9860
登	-9861
社	-9862
Ã	-9863
及	-9864
ו	-9865
天	-9866
ת	-9867
ज	-9868
【	-9869
資	-9870
美	-9871
】	-9872
業	-9873
繁	-9874
ц	-9875
出	-9876
ę	-9877
ห	-9878
主	-9879
发	-9880
了	-9881
女	-9882
索	-9883
︎	-9884
î	-9885
程	-9886
П	-9887
ब	-9888
●	-9889
지	-9890
Б	-9891
і	-9892
ї	-9893
以	-9894
安	-9895
ί	-9896
ص	-9897
ک	-9898
要	-9899
ج	-9900
ව	-9901
་	-9902
可	-9903
ะ	-9904
フ	-9905
更	-9906
内	-9907
目	-9908
言	-9909
ô	-9910
は	-9911
展	-9912
γ	-9913
็	-9914
コ	-9915
メ	-9916
動	-9917
字	-9918
教	-9919
스	-9920
У	-9921
‚	-9922
グ	-9923
容	-9924
性	-9925
使	-9926
名	-9927
õ	-9928
υ	-9929
會	-9930
다	-9931
☰	-9932
心	-9933
於	-9934
書	-9935
最	-9936
部	-9937
하	-9938
ч	-9939
电	-9940
關	-9941
ב	-9942
音	-9943
高	-9944
Ö	-9945
カ	-9946
事	-9947
活	-9948
의	-9949
ć	-9950
А	-9951
श	-9952
✕	-9953
信	-9954
^	-9955
ز	-9956
✓	-9957
件	-9958
司	-9959
同	-9960
報	-9961
客	-9962
花	-9963
்	-9964
多	-9965
您	-9966
自	-9967
テ	-9968
前	-9969
服	-9970
사	-9971
↑	-9972
な	-9973
가	-9974
ර	-9975
が	-9976
产	-9977
源	-9978
ක	-9979
ら	-9980
研	-9981
±	-9982
ु	-9983
ය	-9984
ი	-9985
业	-9986
리	-9987
ป	-9988
ა	-9989
技	-9990
æ	-9991
ž	-9992
Α	-9993
ъ	-9994
∙	-9995
レ	-9996
们	-9997
們	-9998
發	-9999
δ	-10000
デ	-10001
区	-10002
城	-10003
ý	-10004
ත	-10005
ា	-10006
包	-10007
式	-10008
К	-10009
خ	-10010
ग	-10011
ट	-10012
ස	-10013
知	-10014
第	-10015
页	-10016
首	-10017
ジ	-10018
表	-10019
М	-10020
到	-10021
案	-10022
開	-10023
ə	-10024
ා	-10025
位	-10026
士	-10027
手	-10028
題	-10029
化	-10030
精	-10031
¥	-10032
ω	-10033
ම	-10034
ุ	-10035
关	-10036
店	-10037
影	-10038
格	-10039
§	-10040
आ	-10041
ै	-10042
แ	-10043
力	-10044
取	-10045
外	-10046
示	-10047
究	-10048
立	-10049
에	-10050
х	-10051
提	-10052
試	-10053
り	-10054
灣	-10055
시	-10056
ή	-10057
せ	-10058
看	-10059
έ	-10060
ィ	-10061
备	-10062
开	-10063
解	-10064
香	-10065
ß	-10066
ą	-10067
ō	-10068
于	-10069
代	-10070
員	-10071
國	-10072
網	-10073
자	-10074
ަ	-10075
你	-10076
建	-10077
录	-10078
選	-10079
ж	-10080
即	-10081
线	-10082
视	-10083
게	-10084
ğ	-10085
И	-10086
ע	-10087
已	-10088
明	-10089
聯	-10090
Š	-10091
अ	-10092
च	-10093
ड	-10094
キ	-10095
セ	-10096
免	-10097
如	-10098
定	-10099
章	-10100
等	-10101
限	-10102
원	-10103
Í	-10104
В	-10105
さ	-10106
务	-10107
回	-10108
好	-10109
平	-10110
니	-10111
ż	-10112
θ	-10113
Н	-10114
ු	-10115
注	-10116
通	-10117
고	-10118
Á	-10119
Π	-10120
จ	-10121
ë	-10122
ś	-10123
「	-10124
み	-10125
色	-10126
À	-10127
ط	-10128
个	-10129
校	-10130
码	-10131
Ó	-10132
Ø	-10133
О	-10134
្	-10135
口	-10136
意	-10137
時	-10138
產	-10139
́	-10140
ф	-10141
ব	-10142
推	-10143
果	-10144
查	-10145
検	-10146
载	-10147
金	-10148
電	-10149
을	-10150
🔥	-10151
Σ	-10152
އ	-10153
く	-10154
三	-10155
享	-10156
保	-10157
相	-10158
서	-10159
ە	-10160
ู	-10161
↓	-10162
✔	-10163
⭐	-10164
ム	-10165
支	-10166
数	-10167
时	-10168
片	-10169
资	-10170
量	-10171
는	-10172
Т	-10173
ި	-10174
ް	-10175
์	-10176
ャ	-10177
无	-10178
記	-10179
정	-10180
트	-10181
ш	-10182
औ	-10183
ు	-10184
」	-10185
こ	-10186
ウ	-10187
久	-10188
息	-10189
港	-10190
구	-10191
보	-10192
φ	-10193
ื	-10194
か	-10195
ビ	-10196
北	-10197
問	-10198
搜	-10199
料	-10200
海	-10201
费	-10202
қ	-10203
भ	-10204
ল	-10205
ช	-10206
რ	-10207
ブ	-10208
完	-10209
机	-10210
正	-10211
置	-10212
計	-10213
訊	-10214
개	-10215
χ	-10216
ُ	-10217
ާ	-10218
်	-10219
エ	-10220
ニ	-10221
バ	-10222
マ	-10223
標	-10224
管	-10225
ප	-10226
✨	-10227
ん	-10228
ュ	-10229
水	-10230
覽	-10231
面	-10232
類	-10233
미	-10234
전	-10235
¬	-10236
أ	-10237
ू	-10238
ข	-10239
亚	-10240
列	-10241
山	-10242
度	-10243
点	-10244
西	-10245
论	-10246
館	-10247
그	-10248
ު	-10249
్	-10250
រ	-10251
✖	-10252
❤	-10253
め	-10254
れ	-10255
与	-10256
投	-10257
車	-10258
바	-10259
ং	-10260
ာ	-10261
−	-10262
告	-10263
器	-10264
模	-10265
私	-10266
購	-10267
院	-10268
ì	-10269
̧	-10270
Ι	-10271
ה	-10272
も	-10273
其	-10274
利	-10275
动	-10276
樂	-10277
	-10278
ל	-10279
ए	-10280
オ	-10281
個	-10282
單	-10283
旅	-10284
間	-10285
频	-10286
라	-10287
문	-10288
상	-10289
용	-10290
임	-10291
	-10292
ų	-10293
ِ	-10294
う	-10295
だ	-10296
为	-10297
之	-10298
京	-10299
单	-10300
南	-10301
进	-10302
頁	-10303
드	-10304
요	-10305
Ä	-10306
đ	-10307
א	-10308
്	-10309
†	-10310
介	-10311
他	-10312
供	-10313
图	-10314
场	-10315
快	-10316
洲	-10317
特	-10318
與	-10319
藏	-10320
아	-10321
इ	-10322
ํ	-10323
ポ	-10324
含	-10325
存	-10326
留	-10327
術	-10328
ئ	-10329
ْ	-10330
ख	-10331
„	-10332
交	-10333
光	-10334
區	-10335
放	-10336
政	-10337
도	-10338
پ	-10339
র	-10340
ෙ	-10341
パ	-10342
来	-10343
機	-10344
次	-10345
英	-10346
请	-10347
重	-10348
수	-10349
ě	-10350
ī	-10351
ம	-10352
พ	-10353
き	-10354
功	-10355
密	-10356
接	-10357
此	-10358
类	-10359
装	-10360
语	-10361
회	-10362
Ç	-10363
ř	-10364
ѕ	-10365
ி	-10366
ち	-10367
へ	-10368
ミ	-10369
制	-10370
博	-10371
為	-10372
策	-10373
联	-10374
肉	-10375
证	-10376
道	-10377
長	-10378
를	-10379
일	-10380
Μ	-10381
৳	-10382
つ	-10383
ョ	-10384
價	-10385
州	-10386
户	-10387
絡	-10388
관	-10389
Д	-10390
မ	-10391
₦	-10392
▪	-10393
來	-10394
師	-10395
打	-10396
現	-10397
真	-10398
速	-10399
	-10400
ő	-10401
œ	-10402
โ	-10403
聞	-10404
	-10405
¿	-10406
ń	-10407
إ	-10408
ე	-10409
ស	-10410
チ	-10411
ワ	-10412
務	-10413
廣	-10414
款	-10415
神	-10416
遊	-10417
间	-10418
ש	-10419
ใ	-10420
ས	-10421
付	-10422
任	-10423
友	-10424
或	-10425
由	-10426
空	-10427
經	-10428
見	-10429
过	-10430
选	-10431
비	-10432
Κ	-10433
Г	-10434
內	-10435
兵	-10436
專	-10437
瀏	-10438
育	-10439
设	-10440
공	-10441
소	-10442
주	-10443
🔴	-10444
Đ	-10445
ण	-10446
।	-10447
ల	-10448
უ	-10449
⦁	-10450
ご	-10451
っ	-10452
わ	-10453
二	-10454
册	-10455
原	-10456
愛	-10457
播	-10458
權	-10459
福	-10460
经	-10461
대	-10462
적	-10463
फ	-10464
ლ	-10465
ダ	-10466
創	-10467
圖	-10468
型	-10469
域	-10470
得	-10471
東	-10472
療	-10473
請	-10474
集	-10475
레	-10476
알	-10477
Қ	-10478
✅	-10479
《	-10480
味	-10481
微	-10482
感	-10483
持	-10484
计	-10485
需	-10486
나	-10487
ё	-10488
گ	-10489
ނ	-10490
數	-10491
智	-10492
稿	-10493
続	-10494
级	-10495
结	-10496
般	-10497
設	-10498
論	-10499
读	-10500
非	-10501
동	-10502
열	-10503
해	-10504
ū	-10505
ض	-10506
ں	-10507
ල	-10508
හ	-10509
ษ	-10510
།	-10511
ོ	-10512
ន	-10513
》	-10514
企	-10515
具	-10516
员	-10517
始	-10518
布	-10519
术	-10520
标	-10521
歌	-10522
認	-10523
運	-10524
都	-10525
问	-10526
食	-10527
Ž	-10528
ώ	-10529
ـ	-10530
த	-10531
ನ	-10532
ද	-10533
ザ	-10534
何	-10535
初	-10536
各	-10537
后	-10538
基	-10539
場	-10540
应	-10541
拍	-10542
收	-10543
流	-10544
画	-10545
연	-10546
제	-10547
ƒ	-10548
ญ	-10549
ภ	-10550
მ	-10551
ម	-10552
助	-10553
向	-10554
図	-10555
屋	-10556
常	-10557
波	-10558
老	-10559
路	-10560
교	-10561
방	-10562
진	-10563
Τ	-10564
ष	-10565
़	-10566
ാ	-10567
々	-10568
け	-10569
ベ	-10570
乐	-10571
像	-10572
当	-10573
整	-10574
材	-10575
游	-10576
菜	-10577
配	-10578
里	-10579
點	-10580
경	-10581
계	-10582
성	-10583
장	-10584
학	-10585
¡	-10586
ē	-10587
Ο	-10588
ю	-10589
מ	-10590
▲	-10591
例	-10592
只	-10593
就	-10594
指	-10595
消	-10596
牌	-10597
約	-10598
统	-10599
阅	-10600
명	-10601
선	-10602
세	-10603
신	-10604
🇸	-10605
Ρ	-10606
ন	-10607
ถ	-10608
ผ	-10609
○	-10610
址	-10611
房	-10612
欧	-10613
界	-10614
호	-10615
	-10616
🚗	-10617
ș	-10618
ț	-10619
ד	-10620
ވ	-10621
യ	-10622
ག	-10623
ო	-10624
ក	-10625
ど	-10626
ガ	-10627
ナ	-10628
刊	-10629
十	-10630
堂	-10631
改	-10632
易	-10633
条	-10634
百	-10635
號	-10636
課	-10637
身	-10638
近	-10639
述	-10640
錄	-10641
録	-10642
모	-10643
프	-10644
	-10645
¢	-10646
ù	-10647
Ş	-10648
ث	-10649
గ	-10650
ె	-10651
ට	-10652
ር	-10653
え	-10654
よ	-10655
ェ	-10656
世	-10657
价	-10658
少	-10659
权	-10660
爱	-10661
现	-10662
田	-10663
訂	-10664
誌	-10665
赌	-10666
造	-10667
글	-10668
법	-10669
위	-10670
Ú	-10671
З	-10672
غ	-10673
್	-10674
❯	-10675
あ	-10676
ピ	-10677
专	-10678
云	-10679
季	-10680
排	-10681
超	-10682
馬	-10683
데	-10684
중	-10685
🇺	-10686
ʻ	-10687
נ	-10688
ّ	-10689
ެ	-10690
ം	-10691
മ	-10692
ฟ	-10693
ད	-10694
ᄏ	-10695
ḵ	-10696
ậ	-10697
⁠	-10698
健	-10699
必	-10700
治	-10701
無	-10702
男	-10703
規	-10704
識	-10705
调	-10706
進	-10707
関	-10708
과	-10709
분	-10710
오	-10711
우	-10712
유	-10713
🇪	-10714
👋	-10715
Å	-10716
ė	-10717
щ	-10718
э	-10719
ե	-10720
ర	-10721
ს	-10722
そ	-10723
ォ	-10724
ハ	-10725
ホ	-10726
书	-10727
五	-10728
做	-10729
典	-10730
協	-10731
坛	-10732
尋	-10733
引	-10734
想	-10735
春	-10736
每	-10737
球	-10738
確	-10739
習	-10740
藝	-10741
話	-10742
議	-10743
谷	-10744
购	-10745
過	-10746
鈴	-10747
随	-10748
Η	-10749
І	-10750
Л	-10751
ט	-10752
ם	-10753
্	-10754
க	-10755
న	-10756
ග	-10757
ේ	-10758
ེ	-10759
თ	-10760
ộ	-10761
ツ	-10762
傳	-10763
冊	-10764
实	-10765
将	-10766
律	-10767
求	-10768
結	-10769
臺	-10770
費	-10771
貼	-10772
있	-10773
플	-10774
¤	-10775
ư	-10776
β	-10777
Е	-10778
ա	-10779
ק	-10780
ध	-10781
ে	-10782
ழ	-10783
බ	-10784
ི	-10785
က	-10786
官	-10787
广	-10788
康	-10789
志	-10790
普	-10791
架	-10792
株	-10793
榜	-10794
演	-10795
热	-10796
統	-10797
覺	-10798
记	-10799
買	-10800
车	-10801
输	-10802
黑	-10803
및	-10804
변	-10805
은	-10806
최	-10807
터	-10808
ג	-10809
ۇ	-10810
ठ	-10811
थ	-10812
ক	-10813
ి	-10814
ല	-10815
ി	-10816
း	-10817
ት	-10818
ạ	-10819
ズ	-10820
侶	-10821
修	-10822
優	-10823
先	-10824
別	-10825
升	-10826
售	-10827
照	-10828
熟	-10829
直	-10830
着	-10831
線	-10832
荐	-10833
製	-10834
认	-10835
访	-10836
送	-10837
連	-10838
酒	-10839
閱	-10840
노	-10841
업	-10842
여	-10843
크	-10844
🚀	-10845
ذ	-10846
چ	-10847
བ	-10848
‡	-10849
催	-10850
声	-10851
序	-10852
护	-10853
星	-10854
景	-10855
止	-10856
永	-10857
聲	-10858
至	-10859
船	-10860
观	-10861
评	-10862
财	-10863
込	-10864
闻	-10865
년	-10866
품	-10867
	-10868
🇮	-10869
💬	-10870
📌	-10871
Ν	-10872
Χ	-10873
Ѕ	-10874
ಕ	-10875
ศ	-10876
ប	-10877
ゴ	-10878
參	-10879
吧	-10880
培	-10881
太	-10882
島	-10883
并	-10884
應	-10885
择	-10886
未	-10887
概	-10888
比	-10889
略	-10890
群	-10891
酱	-10892
鍵	-10893
长	-10894
내	-10895
뉴	-10896
매	-10897
설	-10898
🚨	-10899
ò	-10900
ů	-10901
މ	-10902
उ	-10903
န	-10904
じ	-10905
也	-10906
份	-10907
优	-10908
克	-10909
切	-10910
参	-10911
室	-10912
庫	-10913
後	-10914
戶	-10915
找	-10916
操	-10917
気	-10918
然	-10919
獲	-10920
箱	-10921
米	-10922
背	-10923
览	-10924
订	-10925
野	-10926
門	-10927
영	-10928
재	-10929
🔎	-10930
Γ	-10931
Λ	-10932
Ж	-10933
ј	-10934
ލ	-10935
ិ	-10936
✯	-10937
➡	-10938
休	-10939
停	-10940
共	-10941
受	-10942
媒	-10943
將	-10944
拉	-10945
探	-10946
深	-10947
清	-10948
碼	-10949
移	-10950
答	-10951
询	-10952
財	-10953
链	-10954
隐	-10955
青	-10956
题	-10957
러	-10958
식	-10959
	-10960
🇦	-10961
🇧	-10962
🇳	-10963
🍒	-10964
ï	-10965
Θ	-10966
כ	-10967
త	-10968
ณ	-10969
ན	-10970
འ	-10971
ར	-10972
ბ	-10973
ስ	-10974
ን	-10975
ល	-10976
➙	-10977
ァ	-10978
ペ	-10979
传	-10980
佈	-10981
元	-10982
写	-10983
周	-10984
園	-10985
套	-10986
局	-10987
效	-10988
構	-10989
歯	-10990
牛	-10991
白	-10992
組	-10993
象	-10994
項	-10995
래	-10996
습	-10997
야	-10998
코	-10999
포	-11000
피	-11001
🇷	-11002
💻	-11003
Œ	-11004
Υ	-11005
ύ	-11006
ր	-11007
،	-11008
ম	-11009
ப	-11010
ང	-11011
‬	-11012
♥	-11013
や	-11014
九	-11015
今	-11016
価	-11017
充	-11018
劃	-11019
卡	-11020
反	-11021
啊	-11022
導	-11023
帖	-11024
形	-11025
承	-11026
斉	-11027
木	-11028
析	-11029
梅	-11030
江	-11031
竹	-11032
築	-11033
紫	-11034
紹	-11035
評	-11036
詢	-11037
読	-11038
證	-11039
追	-11040
透	-11041
醫	-11042
阿	-11043
除	-11044
顶	-11045
额	-11046
风	-11047
역	-11048
온	-11049
으	-11050
티	-11051
û	-11052
̃	-11053
̈	-11054
Ф	-11055
ն	-11056
ן	-11057
آ	-11058
ރ	-11059
ॉ	-11060
স	-11061
ా	-11062
ං	-11063
ො	-11064
ལ	-11065
ტ	-11066
ქ	-11067
⋅	-11068
█	-11069
■	-11070
❮	-11071
再	-11072
因	-11073
奇	-11074
对	-11075
导	-11076
居	-11077
川	-11078
德	-11079
惠	-11080
拿	-11081
换	-11082
援	-11083
曲	-11084
桌	-11085
沙	-11086
王	-11087
确	-11088
考	-11089
营	-11090
衣	-11091
训	-11092
话	-11093
質	-11094
这	-11095
邮	-11096
韩	-11097
디	-11098
부	-11099
페	-11100
🇬	-11101
📍	-11102
È	-11103
ť	-11104
ɪ	-11105
ξ	-11106
ִ	-11107
অ	-11108
ള	-11109
ซ	-11110
མ	-11111
ត	-11112
េ	-11113
ṣ	-11114
⇒	-11115
ネ	-11116
モ	-11117
值	-11118
创	-11119
华	-11120
堀	-11121
师	-11122
座	-11123
戏	-11124
晃	-11125
沪	-11126
燈	-11127
産	-11128
発	-11129
県	-11130
称	-11131
簡	-11132
而	-11133
著	-11134
處	-11135
详	-11136
農	-11137
还	-11138
销	-11139
阪	-11140
風	-11141
남	-11142
당	-11143
메	-11144
입	-11145
치	-11146
화	-11147
	-11148
👉	-11149
🔗	-11150
Ω	-11151
ހ	-11152
ന	-11153
ණ	-11154
ැ	-11155
ნ	-11156
ព	-11157
▶	-11158
む	-11159
匯	-11160
團	-11161
實	-11162
念	-11163
按	-11164
擇	-11165
故	-11166
施	-11167
李	-11168
松	-11169
楽	-11170
武	-11171
段	-11172
池	-11173
熱	-11174
玩	-11175
禮	-11176
篇	-11177
素	-11178
获	-11179
萬	-11180
被	-11181
視	-11182
覧	-11183
规	-11184
註	-11185
账	-11186
趣	-11187
載	-11188
黄	-11189
물	-11190
표	-11191
🔍	-11192
Î	-11193
Õ	-11194
Э	-11195
פ	-11196
ہ	-11197
ۈ	-11198
ौ	-11199
ு	-11200
ಡ	-11201
კ	-11202
ុ	-11203
✉	-11204
✭	-11205
么	-11206
住	-11207
促	-11208
决	-11209
古	-11210
复	-11211
夜	-11212
她	-11213
妙	-11214
寫	-11215
從	-11216
思	-11217
招	-11218
据	-11219
描	-11220
板	-11221
步	-11222
津	-11223
窗	-11224
童	-11225
紀	-11226
编	-11227
航	-11228
范	-11229
蘭	-11230
裝	-11231
說	-11232
迎	-11233
返	-11234
這	-11235
郵	-11236
頭	-11237
목	-11238
발	-11239
안	-11240
	-11241
🇨	-11242
🇹	-11243
🎉	-11244
Ō	-11245
Ż	-11246
Ы	-11247
յ	-11248
ފ	-11249
ތ	-11250
ি	-11251
ગ	-11252
જ	-11253
ત	-11254
ર	-11255
ા	-11256
ી	-11257
ુ	-11258
ര	-11259
අ	-11260
ී	-11261
ြ	-11262
დ	-11263
ვ	-11264
የ	-11265
ግ	-11266
ទ	-11267
អ	-11268
ី	-11269
⇧	-11270
✿	-11271
ろ	-11272
买	-11273
井	-11274
什	-11275
儿	-11276
善	-11277
四	-11278
對	-11279
帳	-11280
朋	-11281
檔	-11282
毕	-11283
民	-11284
没	-11285
申	-11286
筆	-11287
細	-11288
络	-11289
翻	-11290
茶	-11291
華	-11292
袋	-11293
貨	-11294
赤	-11295
起	-11296
跳	-11297
转	-11298
那	-11299
際	-11300
项	-11301
강	-11302
료	-11303
무	-11304
민	-11305
반	-11306
산	-11307
생	-11308
술	-11309
운	-11310
출	-11311
	-11312
🌍	-11313
🎁	-11314
🏠	-11315
📞	-11316
Ł	-11317
Ч	-11318
Я	-11319
ء	-11320
ކ	-11321
ޚ	-11322
য	-11323
ர	-11324
ை	-11325
ం	-11326
క	-11327
ക	-11328
฿	-11329
გ	-11330
ხ	-11331
ኛ	-11332
አ	-11333
ả	-11334
ấ	-11335
ケ	-11336
凯	-11337
埋	-11338
境	-11339
增	-11340
宏	-11341
実	-11342
尤	-11343
幕	-11344
戲	-11345
淫	-11346
漫	-11347
獎	-11348
率	-11349
签	-11350
終	-11351
组	-11352
致	-11353
节	-11354
茂	-11355
触	-11356
讀	-11357
说	-11358
販	-11359
赢	-11360
閉	-11361
门	-11362
顔	-11363
预	-11364
驗	-11365
결	-11366
규	-11367
너	-11368
됨	-11369
록	-11370
마	-11371
배	-11372
색	-11373
양	-11374
현	-11375
환	-11376
¦	-11377
Ą	-11378
ǒ	-11379
ɣ	-11380
ў	-11381
ח	-11382
ގ	-11383
ু	-11384
ட	-11385
வ	-11386
వ	-11387
ಾ	-11388
ത	-11389
ธ	-11390
პ	-11391
ầ	-11392
↔	-11393
↣	-11394
≡	-11395
⚠	-11396
ユ	-11397
仇	-11398
从	-11399
伴	-11400
医	-11401
历	-11402
去	-11403
否	-11404
命	-11405
委	-11406
娛	-11407
它	-11408
寸	-11409
封	-11410
干	-11411
待	-11412
恨	-11413
愈	-11414
报	-11415
授	-11416
曼	-11417
條	-11418
潮	-11419
火	-11420
畫	-11421
种	-11422
算	-11423
級	-11424
経	-11425
细	-11426
聚	-11427
若	-11428
街	-11429
詳	-11430
许	-11431
豐	-11432
貿	-11433
质	-11434
雅	-11435
餐	-11436
饼	-11437
鼠	-11438
거	-11439
댓	-11440
루	-11441
션	-11442
작	-11443
찾	-11444
츠	-11445
행	-11446
	-11447
	-11448
～	-11449
📚	-11450
📸	-11451
Æ	-11452
ľ	-11453
Β	-11454
צ	-11455
ޮ	-11456
ई	-11457
ਜ	-11458
ਪ	-11459
ਬ	-11460
ਾ	-11461
ੀ	-11462
ੰ	-11463
ಿ	-11464
ུ	-11465
ေ	-11466
ច	-11467
─	-11468
▸	-11469
☕	-11470
⟶	-11471
东	-11472
仙	-11473
佳	-11474
史	-11475
喜	-11476
団	-11477
姐	-11478
婚	-11479
尼	-11480
态	-11481
態	-11482
控	-11483
根	-11484
档	-11485
町	-11486
盘	-11487
眼	-11488
石	-11489
落	-11490
該	-11491
調	-11492
講	-11493
責	-11494
越	-11495
足	-11496
銷	-11497
防	-11498
隱	-11499
鮮	-11500
검	-11501
근	-11502
센	-11503
음	-11504
카	-11505
태	-11506
🙂	-11507
ǣ	-11508
ζ	-11509
ϊ	-11510
Ѓ	-11511
Հ	-11512
ס	-11513
ۋ	-11514
ސ	-11515
ޔ	-11516
ީ	-11517
ँ	-11518
छ	-11519
స	-11520
പ	-11521
သ	-11522
အ	-11523
ု	-11524
ያ	-11525
ខ	-11526
ង	-11527
ដ	-11528
ណ	-11529
ភ	-11530
យ	-11531
ែ	-11532
់	-11533
ể	-11534
―	-11535
♀	-11536
⚡	-11537
临	-11538
令	-11539
伙	-11540
依	-11541
八	-11542
冷	-11543
勢	-11544
午	-11545
均	-11546
堡	-11547
填	-11548
売	-11549
奧	-11550
守	-11551
宿	-11552
尾	-11553
差	-11554
戻	-11555
显	-11556
椅	-11557
横	-11558
气	-11559
氣	-11560
汉	-11561
油	-11562
测	-11563
焦	-11564
秋	-11565
端	-11566
絵	-11567
編	-11568
觀	-11569
议	-11570
责	-11571
运	-11572
週	-11573
鏡	-11574
預	-11575
領	-11576
麻	-11577
된	-11578
와	-11579
조	-11580
책	-11581
천	-11582
청	-11583
판	-11584
할	-11585
히	-11586
🌊	-11587
🌟	-11588
👇	-11589
👩	-11590
💰	-11591
ǐ	-11592
Ђ	-11593
ڭ	-11594
ې	-11595
ے	-11596
ই	-11597
ত	-11598
ள	-11599
ರ	-11600
ෝ	-11601
လ	-11602
ိ	-11603
ျ	-11604
ṯ	-11605
ị	-11606
⁤	-11607
₴	-11608
⃣	-11609
▷	-11610
❄	-11611
ゃ	-11612
ヨ	-11613
丁	-11614
並	-11615
习	-11616
予	-11617
亞	-11618
低	-11619
俱	-11620
几	-11621
击	-11622
印	-11623
又	-11624
奖	-11625
妹	-11626
富	-11627
尚	-11628
岡	-11629
巨	-11630
床	-11631
才	-11632
把	-11633
採	-11634
早	-11635
束	-11636
林	-11637
泰	-11638
浜	-11639
湖	-11640
焼	-11641
種	-11642
總	-11643
绍	-11644
罗	-11645
義	-11646
补	-11647
角	-11648
談	-11649
讓	-11650
讯	-11651
识	-11652
词	-11653
试	-11654
课	-11655
谢	-11656
賓	-11657
贸	-11658
跟	-11659
退	-11660
适	-11661
途	-11662
醬	-11663
险	-11664
露	-11665
飞	-11666
飾	-11667
验	-11668
께	-11669
단	-11670
등	-11671
면	-11672
질	-11673
항	-11674
형	-11675
	-11676
	-11677
🎄	-11678
💖	-11679
🛠	-11680
Ś	-11681
ź	-11682
ơ	-11683
ǎ	-11684
Ц	-11685
ؤ	-11686
গ	-11687
ট	-11688
ো	-11689
ു	-11690
ඳ	-11691
စ	-11692
တ	-11693
ွ	-11694
ማ	-11695
ች	-11696
ជ	-11697
ហ	-11698
ḍ	-11699
Ṁ	-11700
ọ	-11701
ố	-11702
ờ	-11703
‪	-11704
◄	-11705
⚙	-11706
ょ	-11707
ノ	-11708
互	-11709
兒	-11710
兰	-11711
别	-11712
則	-11713
吉	-11714
启	-11715
塞	-11716
妇	-11717
妻	-11718
宝	-11719
寬	-11720
岩	-11721
巴	-11722
库	-11723
張	-11724
彩	-11725
执	-11726
捷	-11727
搭	-11728
敬	-11729
斯	-11730
植	-11731
欢	-11732
毛	-11733
済	-11734
激	-11735
甲	-11736
當	-11737
盆	-11738
票	-11739
秀	-11740
節	-11741
納	-11742
繫	-11743
续	-11744
综	-11745
聊	-11746
股	-11747
臨	-11748
舞	-11749
良	-11750
菊	-11751
蓝	-11752
辑	-11753
辦	-11754
连	-11755
迷	-11756
闭	-11757
队	-11758
頂	-11759
马	-11760
魚	-11761
금	-11762
닫	-11763
담	-11764
답	-11765
버	-11766
본	-11767
블	-11768
추	-11769
파	-11770
함	-11771
💦	-11772
📝	-11773
📱	-11774
🪙	-11775
	-11776
Ù	-11777
Ā	-11778
Ξ	-11779
Φ	-11780
Ў	-11781
Ш	-11782
ң	-11783
घ	-11784
়	-11785
ச	-11786
ற	-11787
ప	-11788
ో	-11789
സ	-11790
ළ	-11791
ๆ	-11792
າ	-11793
ཐ	-11794
င	-11795
၂	-11796
គ	-11797
វ	-11798
ើ	-11799
ữ	-11800
‧	-11801
※	-11802
⁢	-11803
⌘	-11804
▽	-11805
⚾	-11806
✈	-11807
❌	-11808
ぞ	-11809
び	-11810
些	-11811
偷	-11812
划	-11813
収	-11814
变	-11815
営	-11816
团	-11817
块	-11818
失	-11819
宇	-11820
寄	-11821
尊	-11822
属	-11823
屬	-11824
岸	-11825
己	-11826
広	-11827
庭	-11828
很	-11829
復	-11830
总	-11831
插	-11832
摘	-11833
暴	-11834
望	-11835
杂	-11836
村	-11837
极	-11838
浏	-11839
短	-11840
籍	-11841
粤	-11842
續	-11843
约	-11844
胸	-11845
藤	-11846
訪	-11847
货	-11848
较	-11849
還	-11850
铝	-11851
铸	-11852
陳	-11853
階	-11854
順	-11855
願	-11856
麦	-11857
默	-11858
든	-11859
려	-11860
련	-11861
만	-11862
실	-11863
움	-11864
준	-11865
체	-11866
키	-11867
택	-11868
	-11869
🇰	-11870
🇵	-11871
🎮	-11872
🎶	-11873
💡	-11874
📅	-11875
🤖	-11876
	-11877
¶	-11878
þ	-11879
Ψ	-11880
ո	-11881
ބ	-11882
ޑ	-11883
ओ	-11884
ড	-11885
ী	-11886
ல	-11887
ట	-11888
ద	-11889
ದ	-11890
ಮ	-11891
ྱ	-11892
ှ	-11893
ረ	-11894
ኢ	-11895
ዮ	-11896
ừ	-11897
₵	-11898
↬	-11899
∼	-11900
≤	-11901
☎	-11902
✗	-11903
❱	-11904
〜	-11905
づ	-11906
ソ	-11907
ボ	-11908
ヤ	-11909
乘	-11910
便	-11911
備	-11912
储	-11913
六	-11914
副	-11915
办	-11916
効	-11917
匙	-11918
响	-11919
围	-11920
坊	-11921
奈	-11922
威	-11923
宣	-11924
宮	-11925
害	-11926
尺	-11927
巻	-11928
帮	-11929
徐	-11930
悠	-11931
戸	-11932
扫	-11933
批	-11934
拼	-11935
摩	-11936
旧	-11937
栽	-11938
桜	-11939
森	-11940
樣	-11941
欄	-11942
決	-11943
沖	-11944
沢	-11945
济	-11946
烟	-11947
班	-11948
環	-11949
番	-11950
禁	-11951
稳	-11952
積	-11953
紙	-11954
維	-11955
繼	-11956
维	-11957
聘	-11958
聽	-11959
興	-11960
药	-11961
蔬	-11962
薛	-11963
藥	-11964
警	-11965
译	-11966
豆	-11967
賞	-11968
赛	-11969
轻	-11970
迪	-11971
逼	-11972
遺	-11973
銀	-11974
钱	-11975
错	-11976
陽	-11977
響	-11978
飲	-11979
골	-11980
광	-11981
델	-11982
들	-11983
박	-11984
밤	-11985
새	-11986
싱	-11987
즈	-11988
즘	-11989
창	-11990
초	-11991
테	-11992
토	-11993
통	-11994
획	-11995
희	-11996
	-11997
	-11998
	-11999
🇩	-12000
🇭	-12001
🌐	-12002
🌴	-12003
👍	-12004
💕	-12005
💼	-12006
📈	-12007
📊	-12008
😊	-12009
ĭ	-12010
ˆ	-12011
Џ	-12012
є	-12013
ז	-12014
ھ	-12015
ृ	-12016
প	-12017
ண	-12018
ய	-12019
య	-12020
ධ	-12021
ཚ	-12022
ྲ	-12023
ပ	-12024
ရ	-12025
ᅠ	-12026
ሊ	-12027
ና	-12028
እ	-12029
ው	-12030
ደ	-12031
ថ	-12032
ធ	-12033
ូ	-12034
ề	-12035
ủ	-12036
ự	-12037
☻	-12038
✟	-12039
⬇	-12040
ギ	-12041
ヘ	-12042
ヴ	-12043
两	-12044
丨	-12045
乳	-12046
係	-12047
兩	-12048
准	-12049
厂	-12050
吃	-12051
哪	-12052
土	-12053
変	-12054
夏	-12055
婷	-12056
屏	-12057
希	-12058
帶	-12059
廠	-12060
強	-12061
强	-12062
忘	-12063
憶	-12064
挑	-12065
換	-12066
映	-12067
栗	-12068
梦	-12069
棉	-12070
欲	-12071
歡	-12072
歩	-12073
歷	-12074
汽	-12075
沒	-12076
洋	-12077
湾	-12078
營	-12079
爆	-12080
环	-12081
珍	-12082
甜	-12083
础	-12084
稱	-12085
穂	-12086
窓	-12087
笔	-12088
筑	-12089
耳	-12090
舉	-12091
艺	-12092
荣	-12093
虫	-12094
蜜	-12095
親	-12096
討	-12097
詞	-12098
让	-12099
该	-12100
貴	-12101
赞	-12102
走	-12103
較	-12104
達	-12105
適	-12106
酸	-12107
释	-12108
际	-12109
韓	-12110
顯	-12111
领	-12112
饰	-12113
駐	-12114
魔	-12115
鼻	-12116
간	-12117
네	-12118
람	-12119
링	-12120
며	-12121
번	-12122
벤	-12123
슈	-12124
약	-12125
예	-12126
존	-12127
증	-12128
직	-12129
처	-12130
춘	-12131
타	-12132
탐	-12133
텐	-12134
특	-12135
펌	-12136
합	-12137
협	-12138
	-12139
	-12140
🇱	-12141
🌎	-12142
🏻	-12143
📰	-12144
🙏	-12145
🥰	-12146
Ê	-12147
ũ	-12148
ȳ	-12149
ˈ	-12150
͂	-12151
ψ	-12152
Њ	-12153
Х	-12154
Ь	-12155
ҷ	-12156
ӣ	-12157
ּ	-12158
ظ	-12159
ۆ	-12160
ށ	-12161
ދ	-12162
দ	-12163
ফ	-12164
ే	-12165
ഗ	-12166
െ	-12167
එ	-12168
ජ	-12169
ශ	-12170
ึ	-12171
པ	-12172
ཡ	-12173
ဘ	-12174
္	-12175
၇	-12176
ៃ	-12177
ổ	-12178
ớ	-12179
ợ	-12180
‰	-12181
₩	-12182
₱	-12183
√	-12184
≫	-12185
⌵	-12186
✦	-12187
➞	-12188
『	-12189
〒	-12190
且	-12191
仕	-12192
估	-12193
但	-12194
傢	-12195
兴	-12196
刘	-12197
刷	-12198
刻	-12199
千	-12200
卫	-12201
危	-12202
卷	-12203
句	-12204
呢	-12205
唐	-12206
嗎	-12207
嘉	-12208
噌	-12209
园	-12210
宅	-12211
宗	-12212
尘	-12213
幫	-12214
悶	-12215
慧	-12216
慶	-12217
戦	-12218
旨	-12219
樓	-12220
母	-12221
浩	-12222
液	-12223
滤	-12224
澳	-12225
濟	-12226
烏	-12227
父	-12228
爸	-12229
獨	-12230
皆	-12231
皮	-12232
礼	-12233
秘	-12234
租	-12235
积	-12236
竞	-12237
簽	-12238
粵	-12239
红	-12240
羹	-12241
苏	-12242
苹	-12243
草	-12244
葉	-12245
裡	-12246
裸	-12247
複	-12248
証	-12249
誉	-12250
謝	-12251
輯	-12252
轉	-12253
采	-12254
银	-12255
降	-12256
雑	-12257
頼	-12258
馈	-12259
駕	-12260
鲜	-12261
鳥	-12262
龙	-12263
권	-12264
눔	-12265
떻	-12266
림	-12267
백	-12268
송	-12269
없	-12270
즐	-12271
채	-12272
축	-12273
큐	-12274
	-12275
	-12276
	-12277
	-12278
🎧	-12279
🎯	-12280
💌	-12281
📢	-12282
😲	-12283
🤓	-12284
🦄	-12285
🫧	-12286
󠀠	-12287
į	-12288
ţ	-12289
ւ	-12290
ְ	-12291
׳	-12292
ښ	-12293
చ	-12294
ಯ	-12295
ඉ	-12296
භ	-12297
ฮ	-12298
ລ	-12299
ວ	-12300
ྒ	-12301
၁	-12302
ფ	-12303
ለ	-12304
ራ	-12305
ክ	-12306
ផ	-12307
ំ	-12308
⁣	-12309
₪	-12310
₫	-12311
₽	-12312
⏰	-12313
♡	-12314
✷	-12315
❀	-12316
』	-12317
ざ	-12318
べ	-12319
七	-12320
丝	-12321
乱	-12322
仔	-12323
億	-12324
况	-12325
则	-12326
咨	-12327
固	-12328
坪	-12329
塚	-12330
塾	-12331
壇	-12332
央	-12333
妖	-12334
嫩	-12335
孩	-12336
尖	-12337
带	-12338
懂	-12339
战	-12340
托	-12341
扣	-12342
択	-12343
撮	-12344
攻	-12345
暑	-12346
曜	-12347
替	-12348
样	-12349
梨	-12350
榮	-12351
歴	-12352
泊	-12353
滞	-12354
潜	-12355
灯	-12356
炭	-12357
熊	-12358
状	-12359
独	-12360
玉	-12361
病	-12362
益	-12363
矯	-12364
符	-12365
粉	-12366
総	-12367
練	-12368
縄	-12369
纸	-12370
绝	-12371
缓	-12372
羊	-12373
职	-12374
肥	-12375
舊	-12376
荷	-12377
補	-12378
见	-12379
許	-12380
豪	-12381
贴	-12382
蹤	-12383
软	-12384
醉	-12385
鏈	-12386
钥	-12387
键	-12388
閩	-12389
阻	-12390
陆	-12391
雨	-12392
零	-12393
须	-12394
鹿	-12395
龍	-12396
건	-12397
넶	-12398
능	-12399
돌	-12400
또	-12401
략	-12402
력	-12403
립	-12404
밀	-12405
별	-12406
복	-12407
얼	-12408
울	-12409
종	-12410
집	-12411
팀	-12412
필	-12413
혁	-12414
확	-12415
후	-12416
	-12417
	-12418
	-12419
	-12420
	-12421
	-12422
	-12423
🇫	-12424
🇿	-12425
🌙	-12426
🌱	-12427
🌸	-12428
🎙	-12429
🎨	-12430
🏆	-12431
🏡	-12432
👀	-12433
👥	-12434
📖	-12435
📬	-12436
🔸	-12437
🛒	-12438
🦋	-12439
𩍦	-12440
Ô	-12441
Ć	-12442
ĩ	-12443
ˇ	-12444
Ї	-12445
ђ	-12446
ґ	-12447
ө	-12448
ٹ	-12449
ڈ	-12450
ێ	-12451
ޙ	-12452
আ	-12453
শ	-12454
ଆ	-12455
ଓ	-12456
ଡ	-12457
ି	-12458
ன	-12459
ா	-12460
ே	-12461
ఉ	-12462
డ	-12463
మ	-12464
శ	-12465
ಂ	-12466
ಲ	-12467
ವ	-12468
ട	-12469
ඇ	-12470
උ	-12471
ඟ	-12472
ච	-12473
ෂ	-12474
ෘ	-12475
ཕ	-12476
ྣ	-12477
ခ	-12478
ံ	-12479
ႏ	-12480
შ	-12481
ብ	-12482
ተ	-12483
ጤ	-12484
ጵ	-12485
ፍ	-12486
ፖ	-12487
ឥ	-12488
↵	-12489
╳	-12490
♂	-12491
⚖	-12492
❝	-12493
❞	-12494
⟩	-12495
⧼	-12496
⧽	-12497
ⴰ	-12498
ⵜ	-12499
ず	-12500
ね	-12501
ゆ	-12502
ゲ	-12503
ゼ	-12504
万	-12505
丽	-12506
仍	-12507
仲	-12508
伊	-12509
似	-12510
候	-12511
傾	-12512
兆	-12513
児	-12514
冠	-12515
冬	-12516
勁	-12517
勧	-12518
勿	-12519
协	-12520
压	-12521
双	-12522
叫	-12523
吹	-12524
啟	-12525
啡	-12526
啪	-12527
嗨	-12528
圍	-12529
塊	-12530
处	-12531
够	-12532
夫	-12533
夾	-12534
奉	-12535
奴	-12536
姓	-12537
媽	-12538
寵	-12539
寻	-12540
対	-12541
尔	-12542
尿	-12543
崎	-12544
席	-12545
幾	-12546
府	-12547
归	-12548
徒	-12549
怪	-12550
慰	-12551
扩	-12552
括	-12553
掲	-12554
撰	-12555
據	-12556
攀	-12557
斗	-12558
昌	-12559
暂	-12560
曆	-12561
杏	-12562
杭	-12563
树	-12564
権	-12565
櫃	-12566
洗	-12567
洩	-12568
浪	-12569
浴	-12570
温	-12571
測	-12572
溫	-12573
牙	-12574
猫	-12575
献	-12576
症	-12577
癒	-12578
省	-12579
突	-12580
競	-12581
笑	-12582
篩	-12583
籤	-12584
糕	-12585
給	-12586
綠	-12587
緒	-12588
罄	-12589
職	-12590
肌	-12591
胶	-12592
舒	-12593
莊	-12594
蔡	-12595
蛋	-12596
觉	-12597
誤	-12598
護	-12599
诺	-12600
豊	-12601
貓	-12602
跡	-12603
軟	-12604
輪	-12605
达	-12606
郭	-12607
醇	-12608
銅	-12609
閒	-12610
闪	-12611
难	-12612
雜	-12613
雲	-12614
飯	-12615
験	-12616
麼	-12617
객	-12618
갤	-12619
김	-12620
까	-12621
날	-12622
념	-12623
되	-12624
두	-12625
락	-12626
른	-12627
말	-12628
머	-12629
멀	-12630
브	-12631
셔	-12632
워	-12633
응	-12634
접	-12635
족	-12636
친	-12637
침	-12638
캠	-12639
커	-12640
켓	-12641
팍	-12642
팬	-12643
퍼	-12644
했	-12645
험	-12646
흥	-12647
	-12648
	-12649
	-12650
	-12651
🏷	-12652
🏼	-12653
🏽	-12654
👨	-12655
💳	-12656
📦	-12657
🔒	-12658
🖤	-12659
🙌	-12660
🚛	-12661
🛟	-12662
🧑	-12663
🧠	-12664
ː	-12665
Ζ	-12666
Ъ	-12667
ќ	-12668
տ	-12669
؟	-12670
ڌ	-12671
ޕ	-12672
ޞ	-12673
ऑ	-12674
झ	-12675
ढ	-12676
এ	-12677
জ	-12678
থ	-12679
ஸ	-12680
జ	-12681
ఫ	-12682
ಶ	-12683
ಸ	-12684
ಹ	-12685
ು	-12686
ച	-12687
ദ	-12688
ൂ	-12689
ဇ	-12690
ဦ	-12691
့	-12692
၄	-12693
၉	-12694
ჩ	-12695
ም	-12696
በ	-12697
ነ	-12698
ገ	-12699
ፕ	-12700
ញ	-12701
ៀ	-12702
ṛ	-12703
ắ	-12704
ỏ	-12705
ồ	-12706
‫	-12707
₺	-12708
∞	-12709
≥	-12710
⏱	-12711
│	-12712
□	-12713
◆	-12714
☀	-12715
➝	-12716
〉	-12717
ぐ	-12718
ほ	-12719
ヒ	-12720
丰	-12721
举	-12722
义	-12723
亲	-12724
仅	-12725
仏	-12726
伝	-12727
伯	-12728
佩	-12729
値	-12730
倩	-12731
冶	-12732
函	-12733
刀	-12734
删	-12735
剧	-12736
剩	-12737
勝	-12738
卓	-12739
另	-12740
吗	-12741
哥	-12742
喃	-12743
喝	-12744
圈	-12745
坐	-12746
坡	-12747
壁	-12748
头	-12749
姻	-12750
姿	-12751
娘	-12752
婦	-12753
媛	-12754
宁	-12755
審	-12756
尽	-12757
層	-12758
岁	-12759
幸	-12760
幼	-12761
庆	-12762
底	-12763
廊	-12764
弦	-12765
彈	-12766
循	-12767
怎	-12768
患	-12769
悦	-12770
戒	-12771
戰	-12772
拓	-12773
振	-12774
撩	-12775
散	-12776
断	-12777
旗	-12778
曾	-12779
末	-12780
杯	-12781
栖	-12782
械	-12783
检	-12784
極	-12785
様	-12786
檬	-12787
氏	-12788
沂	-12789
況	-12790
泛	-12791
浙	-12792
浦	-12793
淮	-12794
添	-12795
減	-12796
满	-12797
漢	-12798
灰	-12799
燕	-12800
爬	-12801
狠	-12802
猜	-12803
疫	-12804
癟	-12805
监	-12806
監	-12807
硬	-12808
碗	-12809
祝	-12810
稀	-12811
紅	-12812
縁	-12813
縣	-12814
織	-12815
繪	-12816
纯	-12817
给	-12818
羞	-12819
翔	-12820
耶	-12821
腦	-12822
臉	-12823
菲	-12824
藍	-12825
融	-12826
血	-12827
衛	-12828
衡	-12829
袖	-12830
裕	-12831
診	-12832
誘	-12833
誠	-12834
説	-12835
譯	-12836
變	-12837
讚	-12838
貝	-12839
貢	-12840
贊	-12841
赏	-12842
輕	-12843
边	-12844
远	-12845
逐	-12846
逢	-12847
避	-12848
邀	-12849
郎	-12850
酯	-12851
釋	-12852
閣	-12853
附	-12854
険	-12855
隊	-12856
險	-12857
雄	-12858
難	-12859
雪	-12860
静	-12861
靜	-12862
革	-12863
頻	-12864
颗	-12865
颜	-12866
騙	-12867
骨	-12868
魂	-12869
鮛	-12870
鲁	-12871
鷹	-12872
黎	-12873
것	-12874
격	-12875
길	-12876
더	-12877
뒤	-12878
룸	-12879
률	-12880
르	-12881
석	-12882
셀	-12883
쇄	-12884
순	-12885
않	-12886
액	-12887
웨	-12888
육	-12889
쟁	-12890
저	-12891
차	-12892
총	-12893
취	-12894
콘	-12895
퀴	-12896
템	-12897
투	-12898
평	-12899
폰	-12900
헌	-12901
활	-12902
	-12903
	-12904
	-12905
	-12906
	-12907
	-12908
	-12909
	-12910
	-12911
	-12912
	-12913
	-12914
￼	-12915
🇯	-12916
🇲	-12917
🇾	-12918
🍞	-12919
🏛	-12920
🏰	-12921
👎	-12922
👏	-12923
👷	-12924
💘	-12925
📷	-12926
📺	-12927
🔐	-12928
😁	-12929
😉	-12930
🤝	-12931
🤩	-12932
🥊	-12933
🥺	-12934
🩵	-12935
	-12936
Þ	-12937
ļ	-12938
ň	-12939
ŋ	-12940
Ũ	-12941
ɑ	-12942
ʼ	-12943
̊	-12944
̓	-12945
ͅ	-12946
Έ	-12947
Ј	-12948
Й	-12949
ҡ	-12950
Ң	-12951
կ	-12952
հ	-12953
ޯ	-12954
ञ	-12955
হ	-12956
எ	-12957
ங	-12958
బ	-12959
ష	-12960
ತ	-12961
ೆ	-12962
അ	-12963
ഓ	-12964
ഡ	-12965
ധ	-12966
േ	-12967
ඩ	-12968
ථ	-12969
ฎ	-12970
๊	-12971
ཁ	-12972
ཆ	-12973
ཇ	-12974
ཞ	-12975
ူ	-12976
၀	-12977
၈	-12978
၊	-12979
ც	-12980
ሌ	-12981
ሬ	-12982
ቶ	-12983
ኳ	-12984
ዛ	-12985
ጠ	-12986
ጲ	-12987
ឋ	-12988
ួ	-12989
៊	-12990
ᱟ	-12991
ṇ	-12992
ặ	-12993
ỉ	-12994
ở	-12995
ụ	-12996
ὁ	-12997
‭	-12998
∨	-12999
⋆	-13000
⍕	-13001
☃	-13002
☺	-13003
⚲	-13004
✍	-13005
➔	-13006
➕	-13007
➜	-13008
げ	-13009
ぜ	-13010
ば	-13011
ひ	-13012
ぼ	-13013
ゅ	-13014
丢	-13015
严	-13016
串	-13017
乃	-13018
乌	-13019
乾	-13020
亀	-13021
争	-13022
亡	-13023
亮	-13024
伦	-13025
佛	-13026
侠	-13027
侵	-13028
俬	-13029
倒	-13030
假	-13031
允	-13032
养	-13033
冪	-13034
冰	-13035
凍	-13036
减	-13037
刪	-13038
勸	-13039
半	-13040
占	-13041
卢	-13042
县	-13043
右	-13044
吊	-13045
君	-13046
咖	-13047
咬	-13048
唯	-13049
唱	-13050
喘	-13051
喵	-13052
圓	-13053
圧	-13054
圳	-13055
垣	-13056
執	-13057
壘	-13058
奥	-13059
妞	-13060
媚	-13061
嫁	-13062
嫵	-13063
嬌	-13064
孕	-13065
孙	-13066
寓	-13067
屄	-13068
左	-13069
巧	-13070
帆	-13071
帝	-13072
帽	-13073
幣	-13074
幺	-13075
廖	-13076
廚	-13077
往	-13078
悄	-13079
惜	-13080
惡	-13081
懶	-13082
扱	-13083
抽	-13084
拟	-13085
掛	-13086
措	-13087
搵	-13088
擊	-13089
擔	-13090
敗	-13091
斷	-13092
族	-13093
晉	-13094
晒	-13095
晚	-13096
暖	-13097
暮	-13098
札	-13099
杨	-13100
染	-13101
核	-13102
桃	-13103
框	-13104
棋	-13105
棒	-13106
棚	-13107
椒	-13108
楊	-13109
橋	-13110
櫈	-13111
歪	-13112
残	-13113
沈	-13114
沥	-13115
泳	-13116
洁	-13117
洽	-13118
派	-13119
涯	-13120
淡	-13121
湘	-13122
滋	-13123
滿	-13124
烹	-13125
煤	-13126
牀	-13127
狀	-13128
狂	-13129
猪	-13130
甫	-13131
畿	-13132
痛	-13133
盐	-13134
盒	-13135
眾	-13136
破	-13137
硅	-13138
碩	-13139
秉	-13140
筛	-13141
範	-13142
糖	-13143
紛	-13144
絮	-13145
緋	-13146
繹	-13147
纱	-13148
织	-13149
终	-13150
耕	-13151
聪	-13152
胜	-13153
脑	-13154
膠	-13155
艦	-13156
茉	-13157
萌	-13158
蒙	-13159
薦	-13160
袜	-13161
覆	-13162
訓	-13163
訴	-13164
詐	-13165
讨	-13166
误	-13167
賛	-13168
賢	-13169
賽	-13170
趨	-13171
軸	-13172
轮	-13173
辜	-13174
迁	-13175
遇	-13176
邪	-13177
針	-13178
銓	-13179
鋼	-13180
鐘	-13181
钮	-13182
陶	-13183
障	-13184
離	-13185
震	-13186
霸	-13187
靈	-13188
鞋	-13189
須	-13190
頓	-13191
饕	-13192
馆	-13193
駅	-13194
駛	-13195
鬼	-13196
鹹	-13197
麗	-13198
黒	-13199
鼎	-13200
갈	-13201
끝	-13202
높	-13203
님	-13204
달	-13205
따	-13206
란	-13207
론	-13208
류	-13209
몬	-13210
빙	-13211
샘	-13212
샵	-13213
속	-13214
슬	-13215
압	-13216
앤	-13217
엔	-13218
웃	-13219
익	-13220
좋	-13221
죽	-13222
줍	-13223
즌	-13224
착	-13225
찬	-13226
첨	-13227
춤	-13228
측	-13229
콜	-13230
팥	-13231
편	-13232
폼	-13233
픈	-13234
홈	-13235
황	-13236
휴	-13237
	-13238
	-13239
	-13240
	-13241
	-13242
	-13243
	-13244
	-13245
	-13246
	-13247
	-13248
🍀	-13249
🍪	-13250
🎟	-13251
🎤	-13252
🏅	-13253
🏖	-13254
🏝	-13255
🐶	-13256
👁	-13257
👤	-13258
💃	-13259
💞	-13260
💭	-13261
📄	-13262
📐	-13263
📧	-13264
📲	-13265
🔮	-13266
🕊	-13267
🕌	-13268
🕒	-13269
🕺	-13270
🗎	-13271
🗺	-13272
😍	-13273
😎	-13274
😭	-13275
🛍	-13276
🤍	-13277
🥋	-13278
🧬	-13279
🩺	-13280
	-13281
	-13282
	-13283
Ă	-13284
ċ	-13285
Ğ	-13286
ĺ	-13287
ņ	-13288
Ť	-13289
Ɣ	-13290
ʂ	-13291
ʹ	-13292
̄	-13293
Ά	-13294
Ί	-13295
Ό	-13296
Ю	-13297
ћ	-13298
ғ	-13299
ү	-13300
ұ	-13301
ҳ	-13302
Ӏ	-13303
դ	-13304
մ	-13305
ս	-13306
ץ	-13307
؋	-13308
ً	-13309
ٌ	-13310
٢	-13311
ۡ	-13312
ः	-13313
ऊ	-13314
ऐ	-13315
খ	-13316
ধ	-13317
ভ	-13318
০	-13319
ொ	-13320
అ	-13321
ఎ	-13322
ధ	-13323
హ	-13324
ಇ	-13325
ಪ	-13326
ಬ	-13327
ಳ	-13328
ೇ	-13329
ഇ	-13330
ഒ	-13331
ඔ	-13332
ฉ	-13333
ฐ	-13334
ฒ	-13335
ྐ	-13336
ྟ	-13337
ྡ	-13338
ྩ	-13339
ླ	-13340
ဆ	-13341
ဗ	-13342
ယ	-13343
၆	-13344
ၤ	-13345
ၿ	-13346
ზ	-13347
ძ	-13348
ᅲ	-13349
ል	-13350
ሎ	-13351
ሐ	-13352
መ	-13353
ሪ	-13354
ሮ	-13355
ሰ	-13356
ቀ	-13357
ቲ	-13358
ታ	-13359
ቴ	-13360
ከ	-13361
ወ	-13362
ዜ	-13363
ዥ	-13364
ዩ	-13365
ዳ	-13366
ጃ	-13367
ፈ	-13368
።	-13369
ឈ	-13370
ឡ	-13371
៛	-13372
ẩ	-13373
ẫ	-13374
ứ	-13375
ὺ	-13376
ῖ	-13377
₡	-13378
₭	-13379
₮	-13380
₲	-13381
₸	-13382
₼	-13383
℗	-13384
⅁	-13385
↟	-13386
⇲	-13387
∕	-13388
≈	-13389
▫	-13390
▴	-13391
◀	-13392
◉	-13393
✂	-13394
✏	-13395
✶	-13396
➲	-13397
⟨	-13398
⠀	-13399
⬍	-13400
ⵉ	-13401
ⵎ	-13402
ⵖ	-13403
ⵣ	-13404
ゥ	-13405
ゾ	-13406
丶	-13407
乗	-13408
乙	-13409
仁	-13410
众	-13411
伤	-13412
佢	-13413
倉	-13414
倶	-13415
傑	-13416
兔	-13417
円	-13418
冇	-13419
冈	-13420
农	-13421
冨	-13422
冲	-13423
净	-13424
凌	-13425
刃	-13426
券	-13427
剛	-13428
剪	-13429
劉	-13430
努	-13431
勇	-13432
募	-13433
匠	-13434
卒	-13435
単	-13436
却	-13437
厕	-13438
厨	-13439
吴	-13440
吸	-13441
呼	-13442
哦	-13443
啦	-13444
喔	-13445
囉	-13446
坂	-13447
坚	-13448
堅	-13449
墙	-13450
夕	-13451
夥	-13452
夭	-13453
奪	-13454
姊	-13455
嬤	-13456
嬰	-13457
孝	-13458
寶	-13459
射	-13460
屯	-13461
峰	-13462
幻	-13463
廁	-13464
廳	-13465
延	-13466
异	-13467
弓	-13468
彼	-13469
征	-13470
御	-13471
徳	-13472
徵	-13473
徽	-13474
忆	-13475
恢	-13476
恩	-13477
戀	-13478
戈	-13479
扬	-13480
扶	-13481
抒	-13482
抓	-13483
抖	-13484
押	-13485
拒	-13486
拖	-13487
拷	-13488
搞	-13489
撥	-13490
擁	-13491
擴	-13492
攝	-13493
敏	-13494
敦	-13495
斎	-13496
斤	-13497
旁	-13498
既	-13499
暗	-13500
曝	-13501
曰	-13502
朽	-13503
杜	-13504
某	-13505
柠	-13506
柳	-13507
柴	-13508
栏	-13509
梯	-13510
椰	-13511
槍	-13512
檢	-13513
欠	-13514
欺	-13515
歲	-13516
歹	-13517
沐	-13518
河	-13519
洛	-13520
浆	-13521
涵	-13522
溝	-13523
滚	-13524
漸	-13525
潔	-13526
瀬	-13527
炮	-13528
烤	-13529
燃	-13530
燒	-13531
爺	-13532
牆	-13533
犬	-13534
狼	-13535
玄	-13536
玫	-13537
瑞	-13538
瑰	-13539
甘	-13540
疑	-13541
皋	-13542
皿	-13543
盈	-13544
盖	-13545
盗	-13546
盛	-13547
盲	-13548
睇	-13549
瞬	-13550
矢	-13551
砌	-13552
礎	-13553
礙	-13554
秒	-13555
稍	-13556
税	-13557
穩	-13558
穴	-13559
窩	-13560
粗	-13561
純	-13562
絶	-13563
縮	-13564
纹	-13565
继	-13566
缘	-13567
署	-13568
罷	-13569
羧	-13570
耐	-13571
耗	-13572
聖	-13573
肠	-13574
肯	-13575
胖	-13576
胡	-13577
腎	-13578
腿	-13579
臣	-13580
舌	-13581
舗	-13582
芝	-13583
芬	-13584
苗	-13585
茨	-13586
荟	-13587
莅	-13588
莎	-13589
葵	-13590
蒋	-13591
薅	-13592
蘇	-13593
褲	-13594
訟	-13595
讪	-13596
诗	-13597
诚	-13598
谈	-13599
貌	-13600
負	-13601
貸	-13602
賀	-13603
賣	-13604
负	-13605
跨	-13606
踐	-13607
踪	-13608
転	-13609
輔	-13610
辰	-13611
辽	-13612
迭	-13613
遮	-13614
邊	-13615
鄂	-13616
鈥	-13617
鑑	-13618
针	-13619
锁	-13620
阴	-13621
陰	-13622
隔	-13623
隷	-13624
雙	-13625
雷	-13626
靠	-13627
頃	-13628
額	-13629
顏	-13630
顺	-13631
顾	-13632
養	-13633
饪	-13634
駒	-13635
騷	-13636
驻	-13637
鬆	-13638
魯	-13639
鱼	-13640
鶴	-13641
鼓	-13642
갖	-13643
끌	-13644
논	-13645
눅	-13646
득	-13647
램	-13648
량	-13649
럼	-13650
렬	-13651
례	-13652
롬	-13653
롯	-13654
많	-13655
맞	-13656
먹	-13657
뮤	-13658
받	-13659
병	-13660
북	-13661
섹	-13662
솔	-13663
승	-13664
쓰	-13665
씀	-13666
애	-13667
언	-13668
옷	-13669
완	-13670
욱	-13671
웹	-13672
윤	-13673
젝	-13674
짜	-13675
칼	-13676
클	-13677
킹	-13678
팅	-13679
훈	-13680
	-13681
	-13682
	-13683
	-13684
	-13685
	-13686
	-13687
	-13688
	-13689
	-13690
	-13691
	-13692
	-13693
	-13694
	-13695
	-13696
	-13697
	-13698
	-13699
	-13700
	-13701
	-13702
	-13703
🇻	-13704
🌗	-13705
🌷	-13706
🌿	-13707
🍁	-13708
🍊	-13709
🍑	-13710
🍾	-13711
🎖	-13712
🎪	-13713
🎬	-13714
🎵	-13715
🏀	-13716
🏏	-13717
🏫	-13718
🐱	-13719
👑	-13720
👕	-13721
👦	-13722
👵	-13723
💎	-13724
💪	-13725
💸	-13726
🔑	-13727
🖇	-13728
🗓	-13729
😀	-13730
😃	-13731
🚧	-13732
🛂	-13733
🤑	-13734
🤘	-13735
🥇	-13736
🦉	-13737
🦾	-13738
🧪	-13739
🩷	-13740
🪓	-13741
🪚	-13742
🫶	-13743
	-13744
	-13745
Ï	-13746
Ò	-13747
Ý	-13748
Ę	-13749
Ě	-13750
Ĩ	-13751
Ő	-13752
Ţ	-13753
ű	-13754
ǀ	-13755
ȝ	-13756
ɔ	-13757
ʃ	-13758
ʊ	-13759
ʺ	-13760
˅	-13761
˟	-13762
̇	-13763
͡	-13764
Ή	-13765
ΐ	-13766
ϛ	-13767
ϝ	-13768
ѓ	-13769
њ	-13770
Ұ	-13771
Ә	-13772
ә	-13773
թ	-13774
լ	-13775
ղ	-13776
ք	-13777
օ	-13778
ך	-13779
١	-13780
٪	-13781
ڕ	-13782
ژ	-13783
۶	-13784
ޅ	-13785
ޒ	-13786
ޗ	-13787
ޤ	-13788
ळ	-13789
ও	-13790
ঙ	-13791
চ	-13792
ছ	-13793
ষ	-13794
ৎ	-13795
৬	-13796
଼	-13797
அ	-13798
ஆ	-13799
இ	-13800
ந	-13801
ஷ	-13802
ீ	-13803
ூ	-13804
ெ	-13805
ோ	-13806
ఈ	-13807
ఐ	-13808
ఖ	-13809
థ	-13810
భ	-13811
ై	-13812
ొ	-13813
ౌ	-13814
ಗ	-13815
ಣ	-13816
ಭ	-13817
ಷ	-13818
ೀ	-13819
ഛ	-13820
ഫ	-13821
ഭ	-13822
റ	-13823
ഴ	-13824
ോ	-13825
ඛ	-13826
ඡ	-13827
ඹ	-13828
ෞ	-13829
ฏ	-13830
ฝ	-13831
ฬ	-13832
ພ	-13833
ສ	-13834
ཀ	-13835
ཛ	-13836
ཤ	-13837
ཨ	-13838
ྔ	-13839
ྗ	-13840
ည	-13841
ဖ	-13842
ဝ	-13843
၅	-13844
წ	-13845
ჭ	-13846
ᅵ	-13847
ህ	-13848
ላ	-13849
ሲ	-13850
ሸ	-13851
ቅ	-13852
ካ	-13853
ዊ	-13854
ዎ	-13855
ዙ	-13856
ድ	-13857
ጣ	-13858
ៅ	-13859
័	-13860
ᱛ	-13861
ᱤ	-13862
ᱥ	-13863
ᱱ	-13864
ᱲ	-13865
ḥ	-13866
ṃ	-13867
Ẓ	-13868
ẹ	-13869
ẻ	-13870
ễ	-13871
ử	-13872
ỹ	-13873
Ἀ	-13874
ἐ	-13875
ἑ	-13876
ἰ	-13877
ὀ	-13878
ὐ	-13879
ὰ	-13880
ὶ	-13881
ὸ	-13882
ῆ	-13883
‒	-13884
‣	-13885
⁃	-13886
↹	-13887
⇩	-13888
∫	-13889
⊟	-13890
⋮	-13891
⋴	-13892
⋼	-13893
⌃	-13894
⌖	-13895
▭	-13896
▯	-13897
☁	-13898
☠	-13899
♭	-13900
♾	-13901
⚑	-13902
⚽	-13903
⛑	-13904
⛩	-13905
⛪	-13906
⛰	-13907
✆	-13908
✞	-13909
✵	-13910
❓	-13911
❗	-13912
➤	-13913
⟵	-13914
⨉	-13915
⬆	-13916
⬤	-13917
⺅	-13918
⺉	-13919
⺌	-13920
⺖	-13921
⺘	-13922
⺡	-13923
⺣	-13924
⺨	-13925
⺭	-13926
⺲	-13927
⺹	-13928
⺾	-13929
⻂	-13930
⻌	-13931
⻏	-13932
⻖	-13933
〈	-13934
〔	-13935
〕	-13936
ぁ	-13937
ぱ	-13938
ふ	-13939
ヌ	-13940
丷	-13941
乎	-13942
亅	-13943
亠	-13944
亦	-13945
仓	-13946
仪	-13947
仿	-13948
伏	-13949
佐	-13950
俏	-13951
俺	-13952
倍	-13953
借	-13954
偉	-13955
僚	-13956
儲	-13957
兮	-13958
兼	-13959
冂	-13960
冒	-13961
冖	-13962
冫	-13963
凝	-13964
凡	-13965
凪	-13966
凭	-13967
凵	-13968
判	-13969
刺	-13970
割	-13971
劣	-13972
劲	-13973
勳	-13974
勵	-13975
勹	-13976
勾	-13977
匕	-13978
匚	-13979
卜	-13980
卩	-13981
厶	-13982
吋	-13983
吐	-13984
吒	-13985
吵	-13986
呀	-13987
咪	-13988
咸	-13989
哼	-13990
唧	-13991
啇	-13992
喉	-13993
嗓	-13994
噜	-13995
囑	-13996
囗	-13997
圣	-13998
坤	-13999
塑	-14000
墊	-14001
壓	-14002
壶	-14003
壽	-14004
夂	-14005
夠	-14006
夹	-14007
奄	-14008
奶	-14009
妃	-14010
妍	-14011
妬	-14012
妮	-14013
姆	-14014
娇	-14015
婆	-14016
嫉	-14017
嫌	-14018
宀	-14019
宍	-14020
宫	-14021
宾	-14022
寒	-14023
寧	-14024
専	-14025
尢	-14026
尸	-14027
层	-14028
履	-14029
屮	-14030
岐	-14031
嵐	-14032
嶼	-14033
巛	-14034
巡	-14035
巽	-14036
巾	-14037
帅	-14038
庄	-14039
廴	-14040
廾	-14041
廿	-14042
弋	-14043
弘	-14044
弟	-14045
张	-14046
彑	-14047
彡	-14048
彳	-14049
径	-14050
忍	-14051
忠	-14052
忽	-14053
怀	-14054
怕	-14055
怡	-14056
急	-14057
恆	-14058
恐	-14059
惊	-14060
慢	-14061
慮	-14062
慾	-14063
憩	-14064
憲	-14065
戴	-14066
扁	-14067
扎	-14068
扒	-14069
抄	-14070
抗	-14071
折	-14072
抢	-14073
抱	-14074
拔	-14075
拡	-14076
挂	-14077
擎	-14078
擬	-14079
攵	-14080
敞	-14081
敵	-14082
昔	-14083
昨	-14084
昭	-14085
晶	-14086
暢	-14087
暨	-14088
朱	-14089
杀	-14090
杖	-14091
构	-14092
枕	-14093
枝	-14094
枱	-14095
桂	-14096
梁	-14097
楼	-14098
橄	-14099
橡	-14100
欖	-14101
欸	-14102
歉	-14103
死	-14104
殊	-14105
殳	-14106
毆	-14107
毋	-14108
毎	-14109
毒	-14110
毯	-14111
氛	-14112
氢	-14113
汁	-14114
汇	-14115
污	-14116
汤	-14117
泡	-14118
浮	-14119
润	-14120
淀	-14121
混	-14122
渠	-14123
渡	-14124
湯	-14125
滑	-14126
滩	-14127
漂	-14128
漏	-14129
澎	-14130
澡	-14131
澤	-14132
濾	-14133
炊	-14134
炸	-14135
煉	-14136
煥	-14137
燥	-14138
爪	-14139
爻	-14140
爾	-14141
爿	-14142
犯	-14143
狱	-14144
狸	-14145
猛	-14146
獸	-14147
珠	-14148
琳	-14149
琴	-14150
瑩	-14151
瑪	-14152
瑶	-14153
瑾	-14154
璧	-14155
瓜	-14156
瓦	-14157
畝	-14158
畢	-14159
異	-14160
疋	-14161
疒	-14162
癶	-14163
皂	-14164
盟	-14165
盡	-14166
盼	-14167
盾	-14168
眠	-14169
睡	-14170
睦	-14171
矛	-14172
硕	-14173
碎	-14174
碳	-14175
磁	-14176
祉	-14177
祐	-14178
祭	-14179
禸	-14180
离	-14181
禾	-14182
稻	-14183
穌	-14184
穎	-14185
穿	-14186
竜	-14187
笼	-14188
簾	-14189
糊	-14190
糸	-14191
絕	-14192
綾	-14193
緣	-14194
緯	-14195
縛	-14196
績	-14197
繩	-14198
纳	-14199
练	-14200
绒	-14201
绕	-14202
绘	-14203
绩	-14204
绪	-14205
缝	-14206
缶	-14207
罐	-14208
罪	-14209
羽	-14210
耒	-14211
聆	-14212
聴	-14213
聿	-14214
肆	-14215
肢	-14216
肴	-14217
脆	-14218
脈	-14219
腾	-14220
膏	-14221
膩	-14222
臀	-14223
臭	-14224
臼	-14225
舔	-14226
舛	-14227
舟	-14228
艙	-14229
艮	-14230
艶	-14231
艷	-14232
艾	-14233
芋	-14234
芳	-14235
芸	-14236
茄	-14237
荡	-14238
荼	-14239
莪	-14240
萃	-14241
蒜	-14242
蓮	-14243
蔦	-14244
蔵	-14245
蔽	-14246
蕩	-14247
蕭	-14248
藉	-14249
蘋	-14250
虍	-14251
虎	-14252
虑	-14253
虹	-14254
蜀	-14255
蜂	-14256
螺	-14257
褂	-14258
襤	-14259
襪	-14260
訳	-14261
誰	-14262
諾	-14263
譽	-14264
讲	-14265
谋	-14266
谍	-14267
谓	-14268
谱	-14269
豕	-14270
豸	-14271
賬	-14272
賴	-14273
败	-14274
贵	-14275
赵	-14276
距	-14277
蹟	-14278
軍	-14279
軚	-14280
軽	-14281
輝	-14282
輸	-14283
輿	-14284
轴	-14285
辅	-14286
辛	-14287
辣	-14288
迅	-14289
违	-14290
迟	-14291
迫	-14292
遍	-14293
遵	-14294
邨	-14295
郊	-14296
郑	-14297
酉	-14298
酵	-14299
酷	-14300
醒	-14301
釆	-14302
鈞	-14303
鋪	-14304
錦	-14305
錶	-14306
鍛	-14307
鎮	-14308
鑫	-14309
鑰	-14310
钟	-14311
钢	-14312
铅	-14313
铜	-14314
铺	-14315
锅	-14316
锌	-14317
镇	-14318
閑	-14319
閲	-14320
闸	-14321
闽	-14322
阜	-14323
阳	-14324
隆	-14325
隶	-14326
隹	-14327
雖	-14328
韋	-14329
韌	-14330
韭	-14331
顧	-14332
飘	-14333
飛	-14334
饅	-14335
饋	-14336
饭	-14337
饮	-14338
饶	-14339
騎	-14340
驱	-14341
驶	-14342
驾	-14343
骗	-14344
髟	-14345
鬥	-14346
鬧	-14347
鬯	-14348
鬲	-14349
鸟	-14350
鸥	-14351
鸭	-14352
鹏	-14353
鹵	-14354
麥	-14355
黍	-14356
黨	-14357
黹	-14358
黽	-14359
齊	-14360
齢	-14361
龚	-14362
龟	-14363
龠	-14364
ꠤ	-14365
같	-14366
겠	-14367
견	-14368
괄	-14369
급	-14370
누	-14371
닉	-14372
독	-14373
딕	-14374
딩	-14375
떤	-14376
뛰	-14377
랑	-14378
랫	-14379
럽	-14380
렉	-14381
롤	-14382
룩	-14383
름	-14384
릭	-14385
몰	-14386
믿	-14387
벌	-14388
베	-14389
봇	-14390
뷰	-14391
빅	-14392
삭	-14393
섬	-14394
셜	-14395
쇼	-14396
쉴	-14397
심	-14398
십	-14399
썬	-14400
았	-14401
앙	-14402
엠	-14403
왔	-14404
월	-14405
잠	-14406
절	-14407
점	-14408
좌	-14409
징	-14410
짤	-14411
찰	-14412
참	-14413
챗	-14414
첫	-14415
컬	-14416
탑	-14417
탭	-14418
톱	-14419
툴	-14420
튜	-14421
퐁	-14422
핑	-14423
핵	-14424
홀	-14425
힙	-14426
	-14427
	-14428
	-14429
	-14430
	-14431
	-14432
	-14433
	-14434
	-14435
	-14436
	-14437
	-14438
	-14439
	-14440
	-14441
	-14442
	-14443
	-14444
	-14445
	-14446
	-14447
	-14448
	-14449
	-14450
	-14451
	-14452
	-14453
	-14454
	-14455
	-14456
	-14457
	-14458
	-14459
	-14460
	-14461
	-14462
	-14463
	-14464
	-14465
	-14466
	-14467
	-14468
	-14469
	-14470
	-14471
	-14472
	-14473
	-14474
	-14475
	-14476
	-14477
	-14478
	-14479
	-14480
	-14481
	-14482
	-14483
	-14484
	-14485
	-14486
	-14487
	-14488
	-14489
	-14490
	-14491
	-14492
	-14493
	-14494
	-14495
	-14496
	-14497
	-14498
	-14499
	-14500
	-14501
	-14502
	-14503
	-14504
🇴	-14505
🌇	-14506
🌈	-14507
🌏	-14508
🌲	-14509
🍃	-14510
🍆	-14511
🍋	-14512
🍎	-14513
🍲	-14514
🍷	-14515
🎂	-14516
🎃	-14517
🎅	-14518
🎥	-14519
🎦	-14520
🎫	-14521
🏃	-14522
🏈	-14523
🏋	-14524
🏾	-14525
🐝	-14526
🐤	-14527
🐦	-14528
👌	-14529
👧	-14530
💍	-14531
💓	-14532
💔	-14533
💗	-14534
💚	-14535
💛	-14536
💝	-14537
💧	-14538
💨	-14539
💫	-14540
💯	-14541
📁	-14542
📋	-14543
📑	-14544
📡	-14545
📣	-14546
📩	-14547
📪	-14548
📼	-14549
🔄	-14550
🔋	-14551
🔔	-14552
🔖	-14553
🔞	-14554
🔧	-14555
🔬	-14556
🔵	-14557
🕹	-14558
🗂	-14559
🗳	-14560
😇	-14561
😥	-14562
😱	-14563
😳	-14564
😻	-14565
🚫	-14566
🛡	-14567
🟐	-14568
🟢	-14569
🟦	-14570
🡥	-14571
🤣	-14572
🤤	-14573
🤨	-14574
🥧	-14575
🥶	-14576
🦁	-14577
🦃	-14578
🧘	-14579
🧧	-14580
🧨	-14581
🧩	-14582
🧿	-14583
𠂉	-14584
𠆢	-14585
	-14586
	-14587
	-14588
	-14589
	-14590
	-14591
	-14592
	-14593
Ë	-14594
Û	-14595
÷	-14596
Ď	-14597
ĕ	-14598
Ė	-14599
ģ	-14600
Į	-14601
ķ	-14602
Ľ	-14603
Ń	-14604
ŏ	-14605
ŭ	-14606
Ů	-14607
Ŵ	-14608
ŷ	-14609
Ź	-14610
Ə	-14611
ƿ	-14612
ǔ	-14613
ǫ	-14614
Ƕ	-14615
Ș	-14616
ȯ	-14617
ɒ	-14618
ʍ	-14619
ʒ	-14620
ʔ	-14621
̀	-14622
̔	-14623
̣	-14624
̤	-14625
̯	-14626
Ͳ	-14627
ϙ	-14628
ϡ	-14629
Ё	-14630
Є	-14631
Ћ	-14632
Ќ	-14633
Щ	-14634
џ	-14635
Ғ	-14636
ҟ	-14637
ҽ	-14638
Ө	-14639
ӿ	-14640
ԛ	-14641
Բ	-14642
Ը	-14643
Մ	-14644
Ն	-14645
Ք	-14646
Օ	-14647
գ	-14648
զ	-14649
է	-14650
ժ	-14651
ի	-14652
ց	-14653
֑	-14654
֔	-14655
֖	-14656
֙	-14657
֣	-14658
ֵ	-14659
ֶ	-14660
ַ	-14661
ָ	-14662
ֹ	-14663
ֻ	-14664
ֽ	-14665
׀	-14666
ף	-14667
٠	-14668
٣	-14669
٤	-14670
٥	-14671
٦	-14672
٨	-14673
٫	-14674
ٰ	-14675
ٱ	-14676
ٲ	-14677
ڵ	-14678
ۖ	-14679
۞	-14680
۰	-14681
۱	-14682
۴	-14683
۵	-14684
ޖ	-14685
ޫ	-14686
ߏ	-14687
ߒ	-14688
ߞ	-14689
१	-14690
९	-14691
ঁ	-14692
উ	-14693
ঠ	-14694
১	-14695
৪	-14696
৫	-14697
உ	-14698
ஊ	-14699
ஏ	-14700
ஐ	-14701
ஒ	-14702
ஓ	-14703
ஔ	-14704
ஞ	-14705
ఆ	-14706
ీ	-14707
ಖ	-14708
ಜ	-14709
ಥ	-14710
ಧ	-14711
ೊ	-14712
ജ	-14713
ണ	-14714
ഥ	-14715
ബ	-14716
വ	-14717
ശ	-14718
ഷ	-14719
ഹ	-14720
ආ	-14721
ฯ	-14722
ฺ	-14723
ດ	-14724
ທ	-14725
ປ	-14726
ະ	-14727
ເ	-14728
ཉ	-14729
ཏ	-14730
ཙ	-14731
ཟ	-14732
ྙ	-14733
ྤ	-14734
ྭ	-14735
ဍ	-14736
ဏ	-14737
ါ	-14738
ီ	-14739
၃	-14740
။	-14741
ჟ	-14742
ღ	-14743
ყ	-14744
ჯ	-14745
ჰ	-14746
ሚ	-14747
ሜ	-14748
ሞ	-14749
ሳ	-14750
ሽ	-14751
ቂ	-14752
ቡ	-14753
ባ	-14754
ቤ	-14755
ቦ	-14756
ቪ	-14757
ኔ	-14758
ኙ	-14759
ኤ	-14760
ኮ	-14761
ዋ	-14762
ዘ	-14763
ዚ	-14764
ዝ	-14765
ዬ	-14766
ዴ	-14767
ዶ	-14768
ጀ	-14769
ጅ	-14770
ጋ	-14771
ጎ	-14772
ጡ	-14773
ጨ	-14774
ጫ	-14775
ጮ	-14776
ጴ	-14777
ፀ	-14778
ፌ	-14779
Ᏼ	-14780
ᐃ	-14781
ᐅ	-14782
ᐈ	-14783
ᑎ	-14784
ᑐ	-14785
ᑦ	-14786
ᒃ	-14787
ᓄ	-14788
ᔦ	-14789
ᔨ	-14790
ឆ	-14791
ឌ	-14792
ឹ	-14793
ះ	-14794
៉	-14795
ᥙ	-14796
ᴡ	-14797
ḩ	-14798
ṙ	-14799
Ṛ	-14800
ṭ	-14801
ṳ	-14802
Ả	-14803
Ầ	-14804
Ẩ	-14805
Ặ	-14806
ẽ	-14807
Ệ	-14808
ἀ	-14809
ἁ	-14810
ἂ	-14811
ἃ	-14812
ἄ	-14813
ἅ	-14814
ἆ	-14815
ἇ	-14816
ἒ	-14817
ἓ	-14818
ἔ	-14819
ἕ	-14820
ἠ	-14821
ἡ	-14822
ἢ	-14823
ἣ	-14824
ἤ	-14825
ἥ	-14826
ἦ	-14827
ἧ	-14828
ἱ	-14829
ἲ	-14830
ἳ	-14831
ἴ	-14832
ἵ	-14833
ἶ	-14834
ἷ	-14835
Ἱ	-14836
ὂ	-14837
ὃ	-14838
ὄ	-14839
ὅ	-14840
ὑ	-14841
ὒ	-14842
ὓ	-14843
ὔ	-14844
ὕ	-14845
ὖ	-14846
ὗ	-14847
ὠ	-14848
ὡ	-14849
ὢ	-14850
ὣ	-14851
ὤ	-14852
ὥ	-14853
ὦ	-14854
ὧ	-14855
ὲ	-14856
ὴ	-14857
ὼ	-14858
ᾶ	-14859
ῤ	-14860
ῥ	-14861
ῦ	-14862
ῶ	-14863
‱	-14864
⁦	-14865
⁩	-14866
₧	-14867
⅄	-14868
↪	-14869
↴	-14870
⇐	-14871
⇓	-14872
⇵	-14873
∀	-14874
∂	-14875
∃	-14876
∅	-14877
∈	-14878
∑	-14879
∢	-14880
∮	-14881
∾	-14882
≝	-14883
≠	-14884
≣	-14885
≼	-14886
⊆	-14887
⊞	-14888
⊻	-14889
⎗	-14890
⏪	-14891
⏬	-14892
⏲	-14893
⏳	-14894
⏷	-14895
━	-14896
╕	-14897
▦	-14898
◌	-14899
◎	-14900
◥	-14901
◦	-14902
☏	-14903
☼	-14904
☽	-14905
☾	-14906
♤	-14907
♩	-14908
♬	-14909
⚐	-14910
⛓	-14911
⛱	-14912
⛳	-14913
⛴	-14914
⛸	-14915
✌	-14916
✎	-14917
✒	-14918
✡	-14919
✤	-14920
✸	-14921
❏	-14922
❐	-14923
❔	-14924
❖	-14925
❣	-14926
❶	-14927
❷	-14928
❸	-14929
❹	-14930
➴	-14931
⟲	-14932
⤍	-14933
⤵	-14934
⤻	-14935
⨂	-14936
⫸	-14937
⬢	-14938
Ⲩ	-14939
〖	-14940
〗	-14941
ぃ	-14942
ぎ	-14943
ぬ	-14944
ぶ	-14945
ぽ	-14946
ゞ	-14947
ヂ	-14948
ヅ	-14949
ヲ	-14950
㐅	-14951
丕	-14952
両	-14953
乡	-14954
亨	-14955
亭	-14956
亳	-14957
亶	-14958
亿	-14959
仆	-14960
仮	-14961
仰	-14962
伍	-14963
伎	-14964
伢	-14965
伸	-14966
佔	-14967
佬	-14968
侍	-14969
侣	-14970
俗	-14971
俩	-14972
俳	-14973
俾	-14974
倖	-14975
倡	-14976
偏	-14977
偶	-14978
傘	-14979
債	-14980
傻	-14981
働	-14982
兄	-14983
兌	-14984
兹	-14985
兽	-14986
冗	-14987
军	-14988
冯	-14989
処	-14990
凳	-14991
凸	-14992
凹	-14993
刹	-14994
剂	-14995
剃	-14996
劇	-14997
劫	-14998
励	-14999
劳	-15000
勉	-15001
勒	-15002
匹	-15003
匿	-15004
卻	-15005
卿	-15006
厅	-15007
厘	-15008
厚	-15009
厦	-15010
叉	-15011
叛	-15012
叢	-15013
叶	-15014
叹	-15015
吏	-15016
吞	-15017
吟	-15018
听	-15019
吳	-15020
呈	-15021
呗	-15022
呻	-15023
咁	-15024
咏	-15025
咫	-15026
哇	-15027
哈	-15028
哭	-15029
哲	-15030
哺	-15031
唇	-15032
唔	-15033
唷	-15034
喫	-15035
嗅	-15036
嗬	-15037
嘔	-15038
噛	-15039
噪	-15040
噴	-15041
困	-15042
囱	-15043
囲	-15044
坑	-15045
垢	-15046
埠	-15047
埼	-15048
堆	-15049
堕	-15050
堜	-15051
堤	-15052
堥	-15053
堪	-15054
堭	-15055
堰	-15056
塈	-15057
塔	-15058
塗	-15059
塘	-15060
塩	-15061
墅	-15062
壯	-15063
壳	-15064
夊	-15065
夢	-15066
夺	-15067
契	-15068
奬	-15069
妆	-15070
妈	-15071
妊	-15072
妝	-15073
姫	-15074
娱	-15075
婉	-15076
婊	-15077
媢	-15078
嬢	-15079
孜	-15080
孤	-15081
宋	-15082
宜	-15083
宰	-15084
宴	-15085
寂	-15086
寛	-15087
寝	-15088
寞	-15089
察	-15090
寨	-15091
寺	-15092
尻	-15093
屁	-15094
屆	-15095
屠	-15096
峇	-15097
峨	-15098
崇	-15099
嵌	-15100
嵗	-15101
嵯	-15102
嶄	-15103
嶋	-15104
巷	-15105
币	-15106
帕	-15107
帯	-15108
帰	-15109
幹	-15110
幽	-15111
庁	-15112
廈	-15113
廉	-15114
廕	-15115
廙	-15116
弐	-15117
弥	-15118
彌	-15119
彗	-15120
彙	-15121
彦	-15122
彻	-15123
忙	-15124
応	-15125
怖	-15126
恤	-15127
恪	-15128
悅	-15129
悉	-15130
悪	-15131
惯	-15132
惹	-15133
愉	-15134
愚	-15135
愿	-15136
慌	-15137
慎	-15138
慣	-15139
慨	-15140
慷	-15141
懇	-15142
懐	-15143
懷	-15144
戮	-15145
扇	-15146
扮	-15147
抑	-15148
抹	-15149
担	-15150
拆	-15151
拗	-15152
拘	-15153
拳	-15154
拶	-15155
挚	-15156
挡	-15157
挥	-15158
挨	-15159
捆	-15160
损	-15161
捨	-15162
掉	-15163
掠	-15164
掩	-15165
握	-15166
搶	-15167
携	-15168
摄	-15169
摳	-15170
撃	-15171
撑	-15172
撞	-15173
擅	-15174
擦	-15175
擾	-15176
攬	-15177
救	-15178
敘	-15179
敲	-15180
敷	-15181
斌	-15182
斜	-15183
斬	-15184
旋	-15185
旦	-15186
旺	-15187
昂	-15188
昐	-15189
昵	-15190
晋	-15191
晓	-15192
晖	-15193
暉	-15194
暌	-15195
暦	-15196
曉	-15197
曦	-15198
朗	-15199
朝	-15200
朴	-15201
朵	-15202
杉	-15203
枪	-15204
枫	-15205
柏	-15206
栃	-15207
桑	-15208
桥	-15209
桶	-15210
梶	-15211
棕	-15212
楓	-15213
槽	-15214
樹	-15215
樺	-15216
橙	-15217
橫	-15218
檐	-15219
檚	-15220
檳	-15221
檸	-15222
櫚	-15223
櫛	-15224
櫻	-15225
欣	-15226
歧	-15227
殿	-15228
毁	-15229
毓	-15230
汀	-15231
汪	-15232
沃	-15233
沉	-15234
沛	-15235
沟	-15236
沿	-15237
泥	-15238
洪	-15239
浬	-15240
浸	-15241
涂	-15242
涉	-15243
涌	-15244
涧	-15245
淇	-15246
淨	-15247
淺	-15248
渋	-15249
渙	-15250
満	-15251
準	-15252
溜	-15253
溺	-15254
漁	-15255
潟	-15256
潤	-15257
澜	-15258
濯	-15259
濱	-15260
瀾	-15261
灌	-15262
灬	-15263
灵	-15264
災	-15265
炉	-15266
炎	-15267
炒	-15268
烈	-15269
烯	-15270
烷	-15271
焉	-15272
煩	-15273
煮	-15274
爭	-15275
爰	-15276
爽	-15277
牲	-15278
牵	-15279
狗	-15280
狮	-15281
猿	-15282
獅	-15283
獻	-15284
玖	-15285
玛	-15286
玻	-15287
琛	-15288
琪	-15289
琼	-15290
璃	-15291
璞	-15292
璟	-15293
瓶	-15294
瓷	-15295
甦	-15296
畅	-15297
畏	-15298
畠	-15299
畴	-15300
疆	-15301
疗	-15302
疼	-15303
疾	-15304
瘦	-15305
皇	-15306
皖	-15307
盪	-15308
眨	-15309
睛	-15310
督	-15311
瞑	-15312
瞭	-15313
瞳	-15314
矜	-15315
砍	-15316
砖	-15317
碑	-15318
碧	-15319
碰	-15320
磚	-15321
磨	-15322
祖	-15323
禅	-15324
稅	-15325
稲	-15326
窥	-15327
窮	-15328
筒	-15329
筝	-15330
箭	-15331
簿	-15332
籲	-15333
粒	-15334
糬	-15335
糾	-15336
紗	-15337
紧	-15338
絞	-15339
絲	-15340
綜	-15341
綴	-15342
綺	-15343
緩	-15344
緻	-15345
繋	-15346
纬	-15347
纲	-15348
纵	-15349
绑	-15350
绚	-15351
绮	-15352
绯	-15353
绸	-15354
绿	-15355
缔	-15356
缩	-15357
罩	-15358
羅	-15359
翁	-15360
耀	-15361
肚	-15362
肛	-15363
肝	-15364
肤	-15365
肪	-15366
肿	-15367
胀	-15368
胃	-15369
胆	-15370
胞	-15371
胺	-15372
脂	-15373
脏	-15374
脫	-15375
脱	-15376
脳	-15377
腊	-15378
腔	-15379
腥	-15380
腳	-15381
腺	-15382
膊	-15383
膚	-15384
膜	-15385
膨	-15386
膳	-15387
臂	-15388
臃	-15389
臟	-15390
舖	-15391
艳	-15392
芒	-15393
芹	-15394
芽	-15395
苞	-15396
茎	-15397
茗	-15398
茫	-15399
茯	-15400
荒	-15401
荫	-15402
莉	-15403
莓	-15404
莞	-15405
菱	-15406
萊	-15407
萱	-15408
葛	-15409
蒿	-15410
蓋	-15411
蓬	-15412
蔭	-15413
蕃	-15414
蕎	-15415
蕾	-15416
薈	-15417
薪	-15418
虜	-15419
蛛	-15420
蜘	-15421
蝙	-15422
蝠	-15423
蠢	-15424
衍	-15425
衝	-15426
衬	-15427
裁	-15428
裏	-15429
裔	-15430
裤	-15431
裹	-15432
褐	-15433
覗	-15434
覚	-15435
詮	-15436
諧	-15437
謀	-15438
謐	-15439
謙	-15440
譜	-15441
讽	-15442
诈	-15443
诞	-15444
谁	-15445
豫	-15446
豬	-15447
贈	-15448
贝	-15449
贞	-15450
贡	-15451
贤	-15452
赖	-15453
赚	-15454
赣	-15455
赴	-15456
赶	-15457
跬	-15458
践	-15459
踏	-15460
蹈	-15461
蹲	-15462
躲	-15463
輛	-15464
輩	-15465
轨	-15466
辆	-15467
辞	-15468
辨	-15469
辭	-15470
辺	-15471
迴	-15472
迹	-15473
逃	-15474
逆	-15475
递	-15476
違	-15477
遙	-15478
遥	-15479
遭	-15480
邁	-15481
邓	-15482
邢	-15483
邸	-15484
邽	-15485
邿	-15486
郕	-15487
郝	-15488
郡	-15489
酌	-15490
酰	-15491
醂	-15492
醛	-15493
醣	-15494
鉄	-15495
錯	-15496
鏽	-15497
鑼	-15498
鑽	-15499
铁	-15500
铭	-15501
锂	-15502
锋	-15503
锐	-15504
镜	-15505
闊	-15506
闖	-15507
阶	-15508
陈	-15509
陣	-15510
陸	-15511
隙	-15512
隠	-15513
隣	-15514
隼	-15515
雞	-15516
霓	-15517
靖	-15518
靚	-15519
靡	-15520
韦	-15521
頒	-15522
顎	-15523
颯	-15524
飽	-15525
餅	-15526
餓	-15527
餘	-15528
馨	-15529
馴	-15530
駆	-15531
驚	-15532
驰	-15533
髪	-15534
髮	-15535
魅	-15536
鮪	-15537
鳳	-15538
鳴	-15539
鴛	-15540
鴦	-15541
鵝	-15542
鵰	-15543
鷄	-15544
鸡	-15545
鸽	-15546
鸿	-15547
鹽	-15548
麒	-15549
麟	-15550
麵	-15551
黃	-15552
齐	-15553
齿	-15554
龄	-15555
龜	-15556
ꄲ	-15557
ꠍ	-15558
ꠐ	-15559
ꠟ	-15560
ꯂ	-15561
ꯃ	-15562
ꯇ	-15563
ꯟ	-15564
ꯣ	-15565
ꯤ	-15566
ꯩ	-15567
감	-15568
갑	-15569
겟	-15570
겪	-15571
곤	-15572
곧	-15573
굳	-15574
굴	-15575
극	-15576
긴	-15577
꼬	-15578
꼭	-15579
꾸	-15580
끠	-15581
끽	-15582
납	-15583
냐	-15584
널	-15585
넘	-15586
넰	-15587
넲	-15588
넳	-15589
넷	-15590
녕	-15591
놓	-15592
뇌	-15593
늘	-15594
닌	-15595
닝	-15596
덕	-15597
됐	-15598
될	-15599
됩	-15600
둡	-15601
듈	-15602
때	-15603
랍	-15604
랙	-15605
랭	-15606
런	-15607
렌	-15608
뢰	-15609
룹	-15610
릿	-15611
망	-15612
맨	-15613
맵	-15614
멈	-15615
못	-15616
묻	-15617
뭔	-15618
므	-15619
밝	-15620
밴	-15621
범	-15622
벳	-15623
벽	-15624
볼	-15625
봉	-15626
불	-15627
빈	-15628
삶	-15629
삼	-15630
샷	-15631
손	-15632
숙	-15633
숨	-15634
쉽	-15635
싫	-15636
싶	-15637
써	-15638
썸	-15639
앞	-15640
앱	-15641
얻	-15642
얽	-15643
었	-15644
엣	-15645
엽	-15646
올	-15647
옵	-15648
율	-15649
융	-15650
읍	-15651
줄	-15652
쥬	-15653
철	-15654
쳐	-15655
촌	-15656
충	-15657
층	-15658
칙	-15659
칸	-15660
캄	-15661
캐	-15662
캘	-15663
컨	-15664
컴	-15665
케	-15666
켜	-15667
콤	-15668
쿠	-15669
쿨	-15670
퀸	-15671
킬	-15672
탁	-15673
탈	-15674
탕	-15675
턴	-15676
텔	-15677
퇴	-15678
팔	-15679
패	-15680
펠	-15681
폴	-15682
퓨	-15683
픽	-15684
핍	-15685
허	-15686
헬	-15687
혔	-15688
혜	-15689
홍	-15690
효	-15691
힐	-15692
힘	-15693
	-15694
	-15695
	-15696
	-15697
	-15698
	-15699
	-15700
	-15701
	-15702
	-15703
	-15704
	-15705
	-15706
	-15707
	-15708
	-15709
	-15710
	-15711
	-15712
	-15713
	-15714
	-15715
	-15716
	-15717
	-15718
	-15719
	-15720
	-15721
	-15722
	-15723
	-15724
	-15725
	-15726
	-15727
	-15728
	-15729
	-15730
	-15731
	-15732
	-15733
	-15734
	-15735
	-15736
	-15737
	-15738
	-15739
	-15740
	-15741
	-15742
	-15743
	-15744
	-15745
	-15746
	-15747
	-15748
	-15749
	-15750
	-15751
	-15752
	-15753
	-15754
	-15755
	-15756
	-15757
	-15758
	-15759
	-15760
	-15761
	-15762
	-15763
	-15764
	-15765
	-15766
	-15767
	-15768
	-15769
	-15770
	-15771
	-15772
	-15773
	-15774
	-15775
	-15776
	-15777
	-15778
	-15779
	-15780
	-15781
	-15782
	-15783
	-15784
	-15785
	-15786
	-15787
	-15788
	-15789
	-15790
	-15791
	-15792
	-15793
	-15794
	-15795
	-15796
	-15797
	-15798
	-15799
	-15800
	-15801
	-15802
	-15803
	-15804
	-15805
	-15806
	-15807
	-15808
	-15809
	-15810
	-15811
	-15812
	-15813
	-15814
	-15815
	-15816
	-15817
	-15818
	-15819
	-15820
	-15821
	-15822
	-15823
	-15824
	-15825
	-15826
	-15827
	-15828
	-15829
	-15830
	-15831
	-15832
	-15833
	-15834
	-15835
	-15836
	-15837
	-15838
	-15839
	-15840
	-15841
	-15842
	-15843
	-15844
	-15845
	-15846
	-15847
﴾	-15848
﴿	-15849
𐌢	-15850
𓏵	-15851
𝄇	-15852
🆓	-15853
🇽	-15854
🌅	-15855
🌞	-15856
🌺	-15857
🍂	-15858
🍓	-15859
🍤	-15860
🍦	-15861
🍩	-15862
🍫	-15863
🍰	-15864
🍴	-15865
🍵	-15866
🍹	-15867
🎀	-15868
🎆	-15869
🎈	-15870
🎊	-15871
🎒	-15872
🎞	-15873
🎡	-15874
🎭	-15875
🎰	-15876
🎸	-15877
🏒	-15878
🏗	-15879
🏙	-15880
🏦	-15881
🏨	-15882
🏮	-15883
🏴	-15884
🏿	-15885
🐋	-15886
🐎	-15887
🐐	-15888
🐚	-15889
🐣	-15890
🐫	-15891
🐷	-15892
🐸	-15893
🐹	-15894
🐾	-15895
👚	-15896
👟	-15897
👯	-15898
👱	-15899
👶	-15900
👻	-15901
👿	-15902
💁	-15903
💄	-15904
💅	-15905
💇	-15906
💋	-15907
💙	-15908
💩	-15909
💵	-15910
💾	-15911
📂	-15912
📆	-15913
📉	-15914
📎	-15915
📏	-15916
📓	-15917
📗	-15918
📘	-15919
📜	-15920
🔁	-15921
🔂	-15922
🔆	-15923
🔊	-15924
🔏	-15925
🔷	-15926
🕐	-15927
🕙	-15928
🕢	-15929
🕰	-15930
🕵	-15931
🕶	-15932
🖂	-15933
🖥	-15934
🖨	-15935
🖼	-15936
🗃	-15937
🗒	-15938
🗙	-15939
🗝	-15940
🗞	-15941
🗽	-15942
😂	-15943
😄	-15944
😅	-15945
😆	-15946
😈	-15947
😋	-15948
😝	-15949
😡	-15950
😨	-15951
😴	-15952
😵	-15953
🙊	-15954
🙋	-15955
🚇	-15956
🚑	-15957
🚙	-15958
🚚	-15959
🚩	-15960
🛥	-15961
🟠	-15962
🟡	-15963
🟣	-15964
🟤	-15965
🟥	-15966
🟪	-15967
🤔	-15968
🤪	-15969
🤳	-15970
🤸	-15971
🥃	-15972
🥈	-15973
🥉	-15974
🥦	-15975
🥨	-15976
🥴	-15977
🥵	-15978
🥷	-15979
🦳	-15980
🦸	-15981
🧀	-15982
🧍	-15983
🧐	-15984
🧞	-15985
🧮	-15986
🧰	-15987
🧵	-15988
🧷	-15989
🧼	-15990
🩸	-15991
🪩	-15992
🪪	-15993
🪴	-15994
🫖	-15995
🫦	-15996
